{
  "version": "1.0",
  "truncation": null,
  "padding": null,
  "added_tokens": [
    {
      "id": 0,
      "content": "<pad>",
      "single_word": false,
      "lstrip": false,
      "rstrip": false,
      "normalized": false,
      "special": true
    },
    {
      "id": 1,
      "content": "<s>",
      "single_word": false,
      "lstrip": false,
      "rstrip": false,
      "normalized": false,
      "special": true
    },
    {
      "id": 2,
      "content": "</s>",
      "single_word": false,
      "lstrip": false,
      "rstrip": false,
      "normalized": false,
      "special": true
    },
    {
      "id": 3,
      "content": "<unk>",
      "single_word": false,
      "lstrip": false,
      "rstrip": false,
      "normalized": false,
      "special": true
    },
    {
      "id": 4,
      "content": "<sep>",
      "single_word": false,
      "lstrip": false,
      "rstrip": false,
      "normalized": false,
      "special": true
    },
    {
      "id": 5,
      "content": "<q>",
      "single_word": false,
      "lstrip": false,
      "rstrip": false,
      "normalized": false,
      "special": true
    },
    {
      "id": 6,
      "content": "<a>",
      "single_word": false,
      "lstrip": false,
      "rstrip": false,
      "normalized": false,
      "special": true
    }
  ],
  "normalizer": null,
  "pre_tokenizer": {
    "type": "Whitespace"
  },
  "post_processor": null,
  "decoder": null,
  "model": {
    "type": "BPE",
    "dropout": null,
    "unk_token": "<unk>",
    "continuing_subword_prefix": null,
    "end_of_word_suffix": null,
    "fuse_unk": false,
    "byte_fallback": false,
    "ignore_merges": false,
    "vocab": {
      "<pad>": 0,
      "<s>": 1,
      "</s>": 2,
      "<unk>": 3,
      "<sep>": 4,
      "<q>": 5,
      "<a>": 6,
      "!": 7,
      "\"": 8,
      "#": 9,
      "$": 10,
      "%": 11,
      "&": 12,
      "'": 13,
      "(": 14,
      ")": 15,
      "*": 16,
      "+": 17,
      ",": 18,
      "-": 19,
      ".": 20,
      "/": 21,
      "0": 22,
      "1": 23,
      "2": 24,
      "3": 25,
      "4": 26,
      "5": 27,
      "6": 28,
      "7": 29,
      "8": 30,
      "9": 31,
      ":": 32,
      ";": 33,
      "<": 34,
      "=": 35,
      ">": 36,
      "?": 37,
      "A": 38,
      "B": 39,
      "C": 40,
      "D": 41,
      "E": 42,
      "F": 43,
      "G": 44,
      "H": 45,
      "I": 46,
      "J": 47,
      "K": 48,
      "L": 49,
      "M": 50,
      "N": 51,
      "O": 52,
      "P": 53,
      "Q": 54,
      "R": 55,
      "S": 56,
      "T": 57,
      "U": 58,
      "V": 59,
      "W": 60,
      "X": 61,
      "Y": 62,
      "Z": 63,
      "[": 64,
      "]": 65,
      "^": 66,
      "_": 67,
      "`": 68,
      "a": 69,
      "b": 70,
      "c": 71,
      "d": 72,
      "e": 73,
      "f": 74,
      "g": 75,
      "h": 76,
      "i": 77,
      "j": 78,
      "k": 79,
      "l": 80,
      "m": 81,
      "n": 82,
      "o": 83,
      "p": 84,
      "q": 85,
      "r": 86,
      "s": 87,
      "t": 88,
      "u": 89,
      "v": 90,
      "w": 91,
      "x": 92,
      "y": 93,
      "z": 94,
      "{": 95,
      "|": 96,
      "}": 97,
      "~": 98,
      "¡": 99,
      "ª": 100,
      "°": 101,
      "±": 102,
      "²": 103,
      "³": 104,
      "·": 105,
      "¹": 106,
      "º": 107,
      "¿": 108,
      "À": 109,
      "Á": 110,
      "Â": 111,
      "Ã": 112,
      "É": 113,
      "Í": 114,
      "Ó": 115,
      "×": 116,
      "Ú": 117,
      "à": 118,
      "á": 119,
      "â": 120,
      "ã": 121,
      "ç": 122,
      "è": 123,
      "é": 124,
      "ê": 125,
      "í": 126,
      "ñ": 127,
      "ó": 128,
      "ô": 129,
      "õ": 130,
      "ö": 131,
      "÷": 132,
      "ú": 133,
      "Ĥ": 134,
      "ħ": 135,
      "̂": 136,
      "Δ": 137,
      "Σ": 138,
      "α": 139,
      "β": 140,
      "δ": 141,
      "ε": 142,
      "θ": 143,
      "λ": 144,
      "μ": 145,
      "ν": 146,
      "π": 147,
      "ψ": 148,
      "ω": 149,
      "о": 150,
      "—": 151,
      "⁴": 152,
      "⁻": 153,
      "₂": 154,
      "→": 155,
      "∂": 156,
      "√": 157,
      "∞": 158,
      "∥": 159,
      "∫": 160,
      "≠": 161,
      "⊥": 162,
      "⟺": 163,
      "为": 164,
      "习": 165,
      "于": 166,
      "产": 167,
      "人": 168,
      "他": 169,
      "关": 170,
      "其": 171,
      "化": 172,
      "失": 173,
      "好": 174,
      "学": 175,
      "对": 176,
      "度": 177,
      "性": 178,
      "拍": 179,
      "控": 180,
      "摄": 181,
      "更": 182,
      "极": 183,
      "汽": 184,
      "犯": 185,
      "独": 186,
      "生": 187,
      "立": 188,
      "練": 189,
      "署": 190,
      "者": 191,
      "联": 192,
      "范": 193,
      "蒸": 194,
      "融": 195,
      "规": 196,
      "訓": 197,
      "话": 198,
      "速": 199,
      "部": 200,
      "金": 201,
      "防": 202,
      "﻿": 203,
      "ar": 204,
      "de": 205,
      "ra": 206,
      "co": 207,
      "te": 208,
      "or": 209,
      "re": 210,
      "me": 211,
      "ma": 212,
      "mo": 213,
      "do": 214,
      "ta": 215,
      "to": 216,
      "ue": 217,
      "in": 218,
      "ce": 219,
      "em": 220,
      "ca": 221,
      "is": 222,
      "er": 223,
      "al": 224,
      "que": 225,
      "as": 226,
      "ro": 227,
      "en": 228,
      "ti": 229,
      "an": 230,
      "um": 231,
      "so": 232,
      "ri": 233,
      "da": 234,
      "vo": 235,
      "Vo": 236,
      "es": 237,
      "ui": 238,
      "va": 239,
      "ia": 240,
      "el": 241,
      "Co": 242,
      "pra": 243,
      "ho": 244,
      "uma": 245,
      "pl": 246,
      "st": 247,
      "si": 248,
      "sa": 249,
      "bo": 250,
      "ci": 251,
      "po": 252,
      "cri": 253,
      "no": 254,
      "go": 255,
      "pre": 256,
      "Me": 257,
      "lo": 258,
      "lh": 259,
      "un": 260,
      "se": 261,
      "voce": 262,
      "Vou": 263,
      "com": 264,
      "con": 265,
      "men": 266,
      "To": 267,
      "ex": 268,
      "na": 269,
      "Como": 270,
      "ico": 271,
      "tu": 272,
      "bem": 273,
      "bre": 274,
      "tar": 275,
      "di": 276,
      "car": 277,
      "sobre": 278,
      "cao": 279,
      "Voce": 280,
      "im": 281,
      "pro": 282,
      "la": 283,
      "por": 284,
      "uito": 285,
      "ha": 286,
      "ver": 287,
      "timo": 288,
      "nde": 289,
      "bas": 290,
      "je": 291,
      "Que": 292,
      "fa": 293,
      "apre": 294,
      "nte": 295,
      "ve": 296,
      "IA": 297,
      "res": 298,
      "pt": 299,
      "melh": 300,
      "melhor": 301,
      "cu": 302,
      "``": 303,
      "como": 304,
      "qui": 305,
      "bom": 306,
      "os": 307,
      "umor": 308,
      "li": 309,
      "Humor": 310,
      "le": 311,
      "cript": 312,
      "muito": 313,
      "fun": 314,
      "ante": 315,
      "ado": 316,
      "ser": 317,
      "gra": 318,
      "ão": 319,
      "pli": 320,
      "Otimo": 321,
      "ava": 322,
      "Script": 323,
      "per": 324,
      "dade": 325,
      "nder": 326,
      "expli": 327,
      "meu": 328,
      "Por": 329,
      "dor": 330,
      "iz": 331,
      "vai": 332,
      "mais": 333,
      "sen": 334,
      "par": 335,
      "Java": 336,
      "stra": 337,
      "mece": 338,
      "tante": 339,
      "ente": 340,
      "Comece": 341,
      "ran": 342,
      "vol": 343,
      "Porque": 344,
      "ito": 345,
      "ala": 346,
      "tor": 347,
      "lar": 348,
      "vi": 349,
      "Bo": 350,
      "faz": 351,
      "mostra": 352,
      "ac": 353,
      "tem": 354,
      "explicar": 355,
      "cia": 356,
      "aprender": 357,
      "basico": 358,
      "on": 359,
      "hon": 360,
      "sin": 361,
      "yt": 362,
      "ython": 363,
      "fi": 364,
      "eu": 365,
      "serve": 366,
      "pe": 367,
      "fe": 368,
      "Quero": 369,
      "Oi": 370,
      "mar": 371,
      "sim": 372,
      "dia": 373,
      "for": 374,
      "ual": 375,
      "log": 376,
      "har": 377,
      "const": 378,
      "vel": 379,
      "ani": 380,
      "fo": 381,
      "Pra": 382,
      "ja": 383,
      "jo": 384,
      "ai": 385,
      "inte": 386,
      "he": 387,
      "am": 388,
      "Python": 389,
      "pois": 390,
      "cas": 391,
      "JavaScript": 392,
      "Na": 393,
      "sado": 394,
      "ais": 395,
      "Re": 396,
      "</": 397,
      "impor": 398,
      "io": 399,
      "hoje": 400,
      "```": 401,
      "progra": 402,
      "fel": 403,
      "funcao": 404,
      "iro": 405,
      "feliz": 406,
      "ensin": 407,
      "menta": 408,
      "tos": 409,
      "depois": 410,
      "ing": 411,
      "laro": 412,
      "Claro": 413,
      "cio": 414,
      "mas": 415,
      "doro": 416,
      "gora": 417,
      "talh": 418,
      "anima": 419,
      "criar": 420,
      "oti": 421,
      "detalh": 422,
      "us": 423,
      "pa": 424,
      "ur": 425,
      "pel": 426,
      "uman": 427,
      "ção": 428,
      "how": 429,
      "min": 430,
      "Aqui": 431,
      "Ru": 432,
      "tudo": 433,
      "ple": 434,
      "bastante": 435,
      "Human": 436,
      "ht": 437,
      "gos": 438,
      "Adoro": 439,
      "otima": 440,
      "Qual": 441,
      "rui": 442,
      "Boa": 443,
      "mentar": 444,
      "reais": 445,
      "ando": 446,
      "dar": 447,
      "tra": 448,
      "ranqui": 449,
      "za": 450,
      "ranquilo": 451,
      "programar": 452,
      "tarde": 453,
      "pas": 454,
      "AI": 455,
      "dos": 456,
      "construi": 457,
      "ncia": 458,
      "can": 459,
      "Ola": 460,
      "nome": 461,
      "pen": 462,
      "pelo": 463,
      "fazer": 464,
      "HT": 465,
      "crivel": 466,
      "Show": 467,
      "issi": 468,
      "construir": 469,
      "De": 470,
      "lin": 471,
      "acha": 472,
      "mi": 473,
      "iste": 474,
      "ml": 475,
      "mon": 476,
      "das": 477,
      "html": 478,
      "sem": 479,
      "gu": 480,
      "imple": 481,
      "implementar": 482,
      "passo": 483,
      "ndo": 484,
      "est": 485,
      "desen": 486,
      "Gos": 487,
      "Gosto": 488,
      "desenvol": 489,
      "uco": 490,
      "incrivel": 491,
      "rela": 492,
      "ML": 493,
      "ini": 494,
      "montar": 495,
      "qu": 496,
      "ou": 497,
      "desenvolver": 498,
      "jeito": 499,
      "pouco": 500,
      "HTML": 501,
      "tica": 502,
      "ga": 503,
      "estu": 504,
      "Fala": 505,
      "ciona": 506,
      "Ty": 507,
      "peScript": 508,
      "TypeScript": 509,
      "boa": 510,
      "Go": 511,
      "conta": 512,
      "man": 513,
      "volu": 514,
      "xa": 515,
      "comen": 516,
      "agora": 517,
      "hor": 518,
      "des": 519,
      "Bem": 520,
      "tori": 521,
      "feito": 522,
      "top": 523,
      "comendo": 524,
      "importante": 525,
      "fala": 526,
      "mate": 527,
      "torial": 528,
      "ite": 529,
      "tiva": 530,
      "fal": 531,
      "amor": 532,
      "algo": 533,
      "ress": 534,
      "Rust": 535,
      "it": 536,
      "ressante": 537,
      "ele": 538,
      "ey": 539,
      "du": 540,
      "otimo": 541,
      "mento": 542,
      "funciona": 543,
      "Hey": 544,
      "ciante": 545,
      "sab": 546,
      "siste": 547,
      "detalhar": 548,
      "++": 549,
      "via": 550,
      "gi": 551,
      "demais": 552,
      "idade": 553,
      "relax": 554,
      "iniciante": 555,
      "ten": 556,
      "indo": 557,
      "cin": 558,
      "fia": 559,
      "seu": 560,
      "pi": 561,
      "gal": 562,
      "bal": 563,
      "lha": 564,
      "ne": 565,
      "gem": 566,
      "logia": 567,
      "bi": 568,
      "medi": 569,
      "isso": 570,
      "nda": 571,
      "camin": 572,
      "ch": 573,
      "sar": 574,
      "usa": 575,
      "ixa": 576,
      "gun": 577,
      "las": 578,
      "Muito": 579,
      "cha": 580,
      "ter": 581,
      "pol": 582,
      "su": 583,
      "tro": 584,
      "inter": 585,
      "motiva": 586,
      "falar": 587,
      "pr": 588,
      "Deixa": 589,
      "ral": 590,
      "site": 591,
      "PI": 592,
      "cor": 593,
      "forma": 594,
      "gado": 595,
      "nu": 596,
      "docu": 597,
      "ensina": 598,
      "manha": 599,
      "motivado": 600,
      "jetos": 601,
      "perfeito": 602,
      "API": 603,
      "tranquilo": 604,
      "ind": 605,
      "evolu": 606,
      "vida": 607,
      "documenta": 608,
      "erra": 609,
      "esco": 610,
      "documentacao": 611,
      "val": 612,
      "empl": 613,
      "jogo": 614,
      "prati": 615,
      "ensinar": 616,
      "nao": 617,
      "Recomendo": 618,
      "fim": 619,
      "cur": 620,
      "animado": 621,
      "onal": 622,
      "mana": 623,
      "amanha": 624,
      "semana": 625,
      "Use": 626,
      "evoluindo": 627,
      "plan": 628,
      "ad": 629,
      "ndendo": 630,
      "endo": 631,
      "projetos": 632,
      "estres": 633,
      "senhor": 634,
      "anç": 635,
      "ceiro": 636,
      "ot": 637,
      "ck": 638,
      "bro": 639,
      "ard": 640,
      "escolha": 641,
      "entendendo": 642,
      "encia": 643,
      "cois": 644,
      "cis": 645,
      "parceiro": 646,
      "interessante": 647,
      "mu": 648,
      "estressado": 649,
      "Es": 650,
      "para": 651,
      ");": 652,
      "sica": 653,
      "gar": 654,
      "relaxado": 655,
      "mos": 656,
      "udo": 657,
      "ae": 658,
      "ano": 659,
      "exempl": 660,
      "cansado": 661,
      "ode": 662,
      "rada": 663,
      "gente": 664,
      "dissi": 665,
      "importa": 666,
      "dissimo": 667,
      "ir": 668,
      "animadissimo": 669,
      "if": 670,
      "fazendo": 671,
      "tri": 672,
      "faci": 673,
      "fas": 674,
      "importancia": 675,
      "dire": 676,
      "empol": 677,
      "empolgado": 678,
      "Di": 679,
      "ples": 680,
      "av": 681,
      "ario": 682,
      "simples": 683,
      "Ei": 684,
      "nc": 685,
      "eleza": 686,
      "inhar": 687,
      "Top": 688,
      "wor": 689,
      "ros": 690,
      "gosta": 691,
      "sistema": 692,
      "coisas": 693,
      "work": 694,
      "Ta": 695,
      "Beleza": 696,
      "grafia": 697,
      "foi": 698,
      "materi": 699,
      "rol": 700,
      "uita": 701,
      "plane": 702,
      "Tudo": 703,
      "ciencia": 704,
      "aprenda": 705,
      "vou": 706,
      "trabal": 707,
      "ap": 708,
      "tutorial": 709,
      "gan": 710,
      "sau": 711,
      "rolando": 712,
      "mia": 713,
      "precis": 714,
      "dy": 715,
      "avanç": 716,
      "pergun": 717,
      "Cur": 718,
      "ismo": 719,
      "tit": 720,
      "Curto": 721,
      "sel": 722,
      "avançado": 723,
      "jar": 724,
      "body": 725,
      "prin": 726,
      "hora": 727,
      "caminho": 728,
      "th": 729,
      "sempre": 730,
      "rio": 731,
      "cti": 732,
      "rasi": 733,
      "Dicas": 734,
      "intermedi": 735,
      "ge": 736,
      "tura": 737,
      "self": 738,
      "mano": 739,
      "intermediario": 740,
      "sabe": 741,
      "ões": 742,
      "mai": 743,
      "mes": 744,
      "lu": 745,
      "h1": 746,
      "aca": 747,
      "tur": 748,
      "ao": 749,
      "So": 750,
      "cinante": 751,
      "rime": 752,
      "fascinante": 753,
      "tes": 754,
      "head": 755,
      "'>": 756,
      "='": 757,
      "topico": 758,
      "curte": 759,
      "title": 760,
      "Bas": 761,
      "undo": 762,
      "maior": 763,
      ").": 764,
      "ync": 765,
      "torrada": 766,
      "app": 767,
      "material": 768,
      "fra": 769,
      "erramenta": 770,
      "cal": 771,
      "blog": 772,
      "ferramenta": 773,
      "come": 774,
      "comi": 775,
      "Amo": 776,
      "rimeiro": 777,
      "En": 778,
      "noite": 779,
      "zinhar": 780,
      "js": 781,
      "pla": 782,
      "gue": 783,
      "Muita": 784,
      "hbo": 785,
      "retur": 786,
      "dashbo": 787,
      "return": 788,
      "dashboard": 789,
      "nume": 790,
      "vale": 791,
      "HP": 792,
      "QL": 793,
      "PHP": 794,
      "lio": 795,
      "ail": 796,
      "prof": 797,
      "Tranquilo": 798,
      "dados": 799,
      "pena": 800,
      "pergunta": 801,
      "Bom": 802,
      "SS": 803,
      "fico": 804,
      "00": 805,
      "planeja": 806,
      "profissi": 807,
      "ni": 808,
      "}!": 809,
      "his": 810,
      "port": 811,
      "profissional": 812,
      "organ": 813,
      "Basico": 814,
      "loja": 815,
      "pare": 816,
      "ux": 817,
      "ello": 818,
      "explica": 819,
      "Le": 820,
      "by": 821,
      "tre": 822,
      "alve": 823,
      "ning": 824,
      "Hello": 825,
      "Git": 826,
      "musica": 827,
      "chat": 828,
      "izar": 829,
      "gen": 830,
      "anal": 831,
      "mework": 832,
      "til": 833,
      "Kot": 834,
      "bot": 835,
      "Kotlin": 836,
      "framework": 837,
      "lear": 838,
      "folio": 839,
      "portfolio": 840,
      "toria": 841,
      "CSS": 842,
      "uno": 843,
      "facil": 844,
      "parece": 845,
      "Salve": 846,
      "estudar": 847,
      "ift": 848,
      "vas": 849,
      "sso": 850,
      "gias": 851,
      "der": 852,
      "Sw": 853,
      "Swift": 854,
      "fil": 855,
      "novo": 856,
      "Ruby": 857,
      "Ensin": 858,
      "ub": 859,
      "aluno": 860,
      "aparece": 861,
      "Opa": 862,
      "line": 863,
      "viajar": 864,
      "plata": 865,
      "digo": 866,
      "Oii": 867,
      "Ensine": 868,
      "plataforma": 869,
      "str": 870,
      "Agora": 871,
      "tal": 872,
      "tografia": 873,
      "Legal": 874,
      "act": 875,
      "conso": 876,
      "sao": 877,
      "inho": 878,
      "et": 879,
      "nomia": 880,
      "ogias": 881,
      "forum": 882,
      "analogias": 883,
      "ina": 884,
      "cozinhar": 885,
      "matica": 886,
      "learning": 887,
      "rasil": 888,
      "pu": 889,
      "online": 890,
      "pal": 891,
      "def": 892,
      "console": 893,
      "gre": 894,
      "historia": 895,
      "pres": 896,
      "Mas": 897,
      "cial": 898,
      "ju": 899,
      "liv": 900,
      "trabalhar": 901,
      "async": 902,
      "versar": 903,
      "legal": 904,
      "ência": 905,
      "codigo": 906,
      "cura": 907,
      "gn": 908,
      "inar": 909,
      "Quer": 910,
      "sol": 911,
      "util": 912,
      "wind": 913,
      "sidade": 914,
      "op": 915,
      "Fico": 916,
      "19": 917,
      "exper": 918,
      "ficar": 919,
      "empre": 920,
      "Tail": 921,
      "Tailwind": 922,
      "organizar": 923,
      "practi": 924,
      "dicas": 925,
      "são": 926,
      "Eu": 927,
      "rer": 928,
      "ine": 929,
      "practique": 930,
      "dca": 931,
      "moral": 932,
      "dcast": 933,
      "SQL": 934,
      "Brasil": 935,
      "print": 936,
      "fatorial": 937,
      "}!'": 938,
      "ista": 939,
      "React": 940,
      "praticas": 941,
      "ço": 942,
      "arte": 943,
      "Meu": 944,
      "aw": 945,
      "romo": 946,
      "exemplos": 947,
      "qual": 948,
      "Topico": 949,
      "veri": 950,
      "detalhado": 951,
      "Essa": 952,
      "Mano": 953,
      "cansar": 954,
      "fres": 955,
      "ções": 956,
      "verificar": 957,
      "indromo": 958,
      "palindromo": 959,
      "cria": 960,
      "matematica": 961,
      "seri": 962,
      "ait": 963,
      "espor": 964,
      "Jo": 965,
      "tr": 966,
      "await": 967,
      "cara": 968,
      "dis": 969,
      "Node": 970,
      "primeiro": 971,
      "direto": 972,
      "aria": 973,
      "não": 974,
      "ados": 975,
      "Lin": 976,
      "pode": 977,
      "frescura": 978,
      "comun": 979,
      "('": 980,
      "espe": 981,
      "Te": 982,
      "Linux": 983,
      "bus": 984,
      "gato": 985,
      "inver": 986,
      "podcast": 987,
      "aju": 988,
      "meta": 989,
      "queri": 990,
      "numeros": 991,
      "expert": 992,
      "che": 993,
      "mente": 994,
      "tou": 995,
      "mundo": 996,
      "estud": 997,
      "respo": 998,
      "viagem": 999,
      "todo": 1000,
      "exemplo": 1001,
      "curio": 1002,
      "ica": 1003,
      "ang": 1004,
      "Do": 1005,
      "ça": 1006,
      "python": 1007,
      "javas": 1008,
      "javascript": 1009,
      "mb": 1010,
      "eb": 1011,
      "gua": 1012,
      "Ex": 1013,
      "esso": 1014,
      "18": 1015,
      "neu": 1016,
      "ab": 1017,
      "ob": 1018,
      "au": 1019,
      "vem": 1020,
      "clas": 1021,
      "the": 1022,
      "curiosidade": 1023,
      "):": 1024,
      "tempo": 1025,
      "..": 1026,
      "jogos": 1027,
      "Pode": 1028,
      "ru": 1029,
      "are": 1030,
      "diz": 1031,
      "esta": 1032,
      "querido": 1033,
      "Su": 1034,
      "Dados": 1035,
      "mica": 1036,
      "lidade": 1037,
      "sta": 1038,
      "programa": 1039,
      "den": 1040,
      "comida": 1041,
      "buscar": 1042,
      "ler": 1043,
      "ria": 1044,
      "DO": 1045,
      "exce": 1046,
      "osso": 1047,
      "gosto": 1048,
      "quis": 1049,
      "erg": 1050,
      "rando": 1051,
      "url": 1052,
      "cker": 1053,
      "buscarDados": 1054,
      "Po": 1055,
      "nos": 1056,
      "Inte": 1057,
      "desi": 1058,
      "PE": 1059,
      "Massa": 1060,
      "Con": 1061,
      "BR": 1062,
      "char": 1063,
      "num": 1064,
      "set": 1065,
      "los": 1066,
      "mel": 1067,
      "100": 1068,
      "CT": 1069,
      "TF": 1070,
      "dio": 1071,
      "!</": 1072,
      ".</": 1073,
      "<!": 1074,
      "Site": 1075,
      "UTF": 1076,
      "YPE": 1077,
      "lang": 1078,
      "Docker": 1079,
      "DOCT": 1080,
      "charset": 1081,
      "DOCTYPE": 1082,
      "bola": 1083,
      "mentos": 1084,
      "));": 1085,
      "=>": 1086,
      "ces": 1087,
      "calcu": 1088,
      "era": 1089,
      "conversar": 1090,
      "diver": 1091,
      "ven": 1092,
      "energ": 1093,
      "ero": 1094,
      "cora": 1095,
      "tido": 1096,
      "Pro": 1097,
      "tam": 1098,
      "nums": 1099,
      "paz": 1100,
      "usado": 1101,
      "sor": 1102,
      "design": 1103,
      "An": 1104,
      "art": 1105,
      "CP": 1106,
      "Otop": 1107,
      "cno": 1108,
      "bio": 1109,
      "anos": 1110,
      "Posso": 1111,
      "soma": 1112,
      "cios": 1113,
      "and": 1114,
      "vidade": 1115,
      "melhora": 1116,
      "rapaz": 1117,
      "descansar": 1118,
      "Usa": 1119,
      "saber": 1120,
      "net": 1121,
      "enor": 1122,
      "comunidade": 1123,
      "dormi": 1124,
      "tran": 1125,
      "rap": 1126,
      "eco": 1127,
      "caro": 1128,
      "anto": 1129,
      "enorme": 1130,
      "fotografia": 1131,
      "bilidade": 1132,
      "ira": 1133,
      "14": 1134,
      "praticar": 1135,
      "filme": 1136,
      "comecar": 1137,
      "moço": 1138,
      "pira": 1139,
      "essoa": 1140,
      "ins": 1141,
      "jovem": 1142,
      "correr": 1143,
      "estudante": 1144,
      "usados": 1145,
      "As": 1146,
      "comigo": 1147,
      "treinar": 1148,
      "bra": 1149,
      "Via": 1150,
      "ficou": 1151,
      "cê": 1152,
      "Per": 1153,
      "ves": 1154,
      "son": 1155,
      "Se": 1156,
      "WS": 1157,
      "esperando": 1158,
      "cnologia": 1159,
      "AWS": 1160,
      "tas": 1161,
      "recomendo": 1162,
      "esporte": 1163,
      "usar": 1164,
      "caminhar": 1165,
      "Super": 1166,
      "Hub": 1167,
      "eles": 1168,
      "guer": 1169,
      "GitHub": 1170,
      "coes": 1171,
      "tico": 1172,
      "sua": 1173,
      "Mel": 1174,
      "Tava": 1175,
      "nes": 1176,
      "tech": 1177,
      "ratura": 1178,
      "tivo": 1179,
      "Bala": 1180,
      "Sempre": 1181,
      "mach": 1182,
      "ass": 1183,
      "tir": 1184,
      "loso": 1185,
      "Des": 1186,
      "Mundo": 1187,
      "ber": 1188,
      "acana": 1189,
      "Melhor": 1190,
      "comple": 1191,
      "produ": 1192,
      "encon": 1193,
      "Interessante": 1194,
      "ep": 1195,
      "apren": 1196,
      "ul": 1197,
      "il": 1198,
      "ther": 1199,
      "jogar": 1200,
      "duca": 1201,
      "apareceu": 1202,
      "opcao": 1203,
      "gas": 1204,
      "saudade": 1205,
      "quiser": 1206,
      "arre": 1207,
      "losofia": 1208,
      "aprendiz": 1209,
      "total": 1210,
      "pai": 1211,
      "sentar": 1212,
      "ambi": 1213,
      "geo": 1214,
      "serie": 1215,
      "area": 1216,
      "ên": 1217,
      "sico": 1218,
      "cer": 1219,
      "moda": 1220,
      "aprendo": 1221,
      "cafe": 1222,
      "ranca": 1223,
      "ate": 1224,
      "cional": 1225,
      "lita": 1226,
      "tenta": 1227,
      "at": 1228,
      "pender": 1229,
      "string": 1230,
      "calcular": 1231,
      "Qu": 1232,
      "blo": 1233,
      "quero": 1234,
      "livro": 1235,
      "pos": 1236,
      "massa": 1237,
      "aten": 1238,
      "segu": 1239,
      "Est": 1240,
      "lente": 1241,
      "tenho": 1242,
      "trans": 1243,
      "ino": 1244,
      "arrepender": 1245,
      "amos": 1246,
      "machine": 1247,
      "contar": 1248,
      "trar": 1249,
      "isica": 1250,
      "++:": 1251,
      "excelente": 1252,
      "funda": 1253,
      "comeco": 1254,
      "responder": 1255,
      "encontrar": 1256,
      "Dart": 1257,
      "estudio": 1258,
      "estudioso": 1259,
      "energia": 1260,
      "medo": 1261,
      "Em": 1262,
      "programacao": 1263,
      "cul": 1264,
      "fere": 1265,
      "Depois": 1266,
      "dois": 1267,
      "resta": 1268,
      "completo": 1269,
      "cho": 1270,
      "segre": 1271,
      "itinho": 1272,
      "brother": 1273,
      "direitinho": 1274,
      "dormir": 1275,
      "strap": 1276,
      "otstrap": 1277,
      "facilita": 1278,
      "yo": 1279,
      "Bootstrap": 1280,
      "fica": 1281,
      "luz": 1282,
      "))": 1283,
      "ction": 1284,
      "apresentar": 1285,
      "irma": 1286,
      "segredo": 1287,
      "Vamos": 1288,
      "',": 1289,
      "Pessoa": 1290,
      "anime": 1291,
      "divertido": 1292,
      "In": 1293,
      "agua": 1294,
      "gular": 1295,
      "numero": 1296,
      "fera": 1297,
      "zero": 1298,
      "mor": 1299,
      "tá": 1300,
      "__": 1301,
      "pensa": 1302,
      "saudar": 1303,
      "ducacao": 1304,
      "Isso": 1305,
      "Primeiro": 1306,
      "curiosidades": 1307,
      "ali": 1308,
      "),": 1309,
      "gais": 1310,
      "kk": 1311,
      "tambem": 1312,
      "seja": 1313,
      "entender": 1314,
      "vogais": 1315,
      "entenda": 1316,
      "ach": 1317,
      "be": 1318,
      "atencao": 1319,
      "irmao": 1320,
      "tacao": 1321,
      "litica": 1322,
      "lista": 1323,
      "detalhe": 1324,
      "cola": 1325,
      "Fun": 1326,
      "codar": 1327,
      "relaxante": 1328,
      "rida": 1329,
      "Bora": 1330,
      "vis": 1331,
      "inves": 1332,
      "block": 1333,
      "ambiente": 1334,
      "ajuda": 1335,
      "Não": 1336,
      "ps": 1337,
      "tecnologia": 1338,
      "corrida": 1339,
      "xi": 1340,
      "chain": 1341,
      "Presta": 1342,
      "ciel": 1343,
      "ness": 1344,
      "vir": 1345,
      "rest": 1346,
      "hamb": 1347,
      "urguer": 1348,
      "hamburguer": 1349,
      "15": 1350,
      "Tra": 1351,
      "orden": 1352,
      "ustenta": 1353,
      "checa": 1354,
      "ende": 1355,
      "Fir": 1356,
      "bac": 1357,
      "meza": 1358,
      "ceso": 1359,
      "Quanto": 1360,
      "Firmeza": 1361,
      "blockchain": 1362,
      "sort": 1363,
      "uer": 1364,
      "princeso": 1365,
      "Perfeito": 1366,
      "ordenar": 1367,
      "veis": 1368,
      "tividade": 1369,
      "cidade": 1370,
      "edade": 1371,
      "ciologia": 1372,
      "ext": 1373,
      "lig": 1374,
      "filmes": 1375,
      "press": 1376,
      "Web": 1377,
      "show": 1378,
      "sou": 1379,
      "yoga": 1380,
      "pende": 1381,
      "Mon": 1382,
      "Sass": 1383,
      "anjo": 1384,
      "gocios": 1385,
      "ustentabilidade": 1386,
      "rasile": 1387,
      "tronomia": 1388,
      "biologia": 1389,
      "conhe": 1390,
      "animes": 1391,
      "nutri": 1392,
      "strar": 1393,
      "colate": 1394,
      "precisando": 1395,
      "api": 1396,
      "ua": 1397,
      "piz": 1398,
      "filosofia": 1399,
      "cket": 1400,
      "Socket": 1401,
      "WebSocket": 1402,
      "huma": 1403,
      "anotar": 1404,
      "livros": 1405,
      "inverte": 1406,
      "inverter": 1407,
      "endedor": 1408,
      "pizza": 1409,
      "lho": 1410,
      "%!": 1411,
      "mostrar": 1412,
      "questa": 1413,
      "chocolate": 1414,
      "questao": 1415,
      "ntes": 1416,
      "hat": 1417,
      "endedorismo": 1418,
      "plex": 1419,
      "crip": 1420,
      "natu": 1421,
      "VS": 1422,
      "Code": 1423,
      "ardina": 1424,
      "eting": 1425,
      "Mongo": 1426,
      "ardinagem": 1427,
      "DB": 1428,
      "Angular": 1429,
      "MongoDB": 1430,
      "Terra": 1431,
      "iza": 1432,
      "precisar": 1433,
      "cre": 1434,
      "brasile": 1435,
      "45": 1436,
      "fici": 1437,
      "complex": 1438,
      "udar": 1439,
      "ân": 1440,
      "economia": 1441,
      "demia": 1442,
      "super": 1443,
      "deep": 1444,
      "function": 1445,
      "class": 1446,
      "Async": 1447,
      "preciso": 1448,
      "...": 1449,
      "Jen": 1450,
      "jun": 1451,
      "kins": 1452,
      "astronomia": 1453,
      "Jenkins": 1454,
      "cimento": 1455,
      "bacana": 1456,
      "fisica": 1457,
      "keting": 1458,
      "varia": 1459,
      "mal": 1460,
      "Express": 1461,
      "fer": 1462,
      "real": 1463,
      "Svel": 1464,
      "tch": 1465,
      "somar": 1466,
      "Sol": 1467,
      "podcasts": 1468,
      "Estudar": 1469,
      "Svelte": 1470,
      "ES": 1471,
      "Next": 1472,
      "TP": 1473,
      "').": 1474,
      "fetch": 1475,
      "then": 1476,
      "acai": 1477,
      "Jogar": 1478,
      "Grap": 1479,
      "hQL": 1480,
      "of": 1481,
      "Redis": 1482,
      "HTTP": 1483,
      "corpo": 1484,
      "saude": 1485,
      "GraphQL": 1486,
      "ís": 1487,
      "uni": 1488,
      "natacao": 1489,
      "fof": 1490,
      "classe": 1491,
      "Cor": 1492,
      "lask": 1493,
      "back": 1494,
      "aqui": 1495,
      "hi": 1496,
      "fofinho": 1497,
      "Os": 1498,
      "les": 1499,
      "ada": 1500,
      "Cri": 1501,
      "IP": 1502,
      "stgre": 1503,
      "quimica": 1504,
      "Postgre": 1505,
      "seguranca": 1506,
      "PostgreSQL": 1507,
      "ble": 1508,
      "();": 1509,
      "//": 1510,
      "://": 1511,
      "atro": 1512,
      "json": 1513,
      "tps": 1514,
      "vacao": 1515,
      "https": 1516,
      "pensamento": 1517,
      "Tre": 1518,
      "sal": 1519,
      "mé": 1520,
      "lix": 1521,
      "lite": 1522,
      "cina": 1523,
      "gunda": 1524,
      "ure": 1525,
      "tion": 1526,
      "nada": 1527,
      "respira": 1528,
      "iva": 1529,
      "ba": 1530,
      "gên": 1531,
      "mer": 1532,
      "Vue": 1533,
      "cen": 1534,
      "sicologia": 1535,
      "Kub": 1536,
      "TCP": 1537,
      "trabalho": 1538,
      "fí": 1539,
      "angu": 1540,
      "dores": 1541,
      "Apre": 1542,
      "Flask": 1543,
      "Guer": 1544,
      "compu": 1545,
      "xao": 1546,
      "sistente": 1547,
      "academia": 1548,
      "paixao": 1549,
      "Guerra": 1550,
      "->": 1551,
      "educacao": 1552,
      "quando": 1553,
      "cl": 1554,
      "jan": 1555,
      "netes": 1556,
      "Progra": 1557,
      "literatura": 1558,
      "quer": 1559,
      "ema": 1560,
      "mú": 1561,
      "criptografia": 1562,
      "78": 1563,
      "Rail": 1564,
      "ist": 1565,
      "ernetes": 1566,
      "Rails": 1567,
      "rapi": 1568,
      "politica": 1569,
      "series": 1570,
      "Kubernetes": 1571,
      "quem": 1572,
      "${": 1573,
      "';": 1574,
      "(`": 1575,
      "Cam": 1576,
      "Each": 1577,
      "Li": 1578,
      "];": 1579,
      "`);": 1580,
      "forEach": 1581,
      "}!`);": 1582,
      "Viajar": 1583,
      "nas": 1584,
      "valor": 1585,
      "Programar": 1586,
      "Az": 1587,
      "CI": 1588,
      "meio": 1589,
      "minha": 1590,
      "network": 1591,
      "Azure": 1592,
      "CD": 1593,
      "Nux": 1594,
      "RES": 1595,
      "Nuxt": 1596,
      "REST": 1597,
      "linaria": 1598,
      "Treinar": 1599,
      "cion": 1600,
      "ajudar": 1601,
      "ouvir": 1602,
      "coracao": 1603,
      "use": 1604,
      "fundamentar": 1605,
      "cr": 1606,
      "sé": 1607,
      "geografia": 1608,
      "dro": 1609,
      "entre": 1610,
      "ita": 1611,
      "culo": 1612,
      "neural": 1613,
      "existe": 1614,
      "mim": 1615,
      "rebro": 1616,
      "ask": 1617,
      "graus": 1618,
      "Trabal": 1619,
      "inha": 1620,
      "Fo": 1621,
      "Criar": 1622,
      "depende": 1623,
      "ling": 1624,
      "Revolu": 1625,
      "jango": 1626,
      "25": 1627,
      "raiva": 1628,
      "deva": 1629,
      "devagar": 1630,
      "rea": 1631,
      "té": 1632,
      "negocios": 1633,
      "uagem": 1634,
      "cesa": 1635,
      "ast": 1636,
      "sociologia": 1637,
      "Conversar": 1638,
      "Ar": 1639,
      "Im": 1640,
      "Ro": 1641,
      "din": 1642,
      "cala": 1643,
      "quei": 1644,
      "tó": 1645,
      "posi": 1646,
      "pri": 1647,
      "cí": 1648,
      "Lab": 1649,
      "ias": 1650,
      "tness": 1651,
      "rais": 1652,
      "cinema": 1653,
      "GitLab": 1654,
      "arra": 1655,
      "sos": 1656,
      "outro": 1657,
      "mesmo": 1658,
      "linguagem": 1659,
      "estou": 1660,
      "Ame": 1661,
      "GCP": 1662,
      "você": 1663,
      "Cozinhar": 1664,
      "rancesa": 1665,
      "precisa": 1666,
      "Django": 1667,
      "cres": 1668,
      "rou": 1669,
      "lim": 1670,
      "ns": 1671,
      "Você": 1672,
      "ell": 1673,
      "fitness": 1674,
      "networks": 1675,
      "porque": 1676,
      "vez": 1677,
      "12": 1678,
      "Hask": 1679,
      "bri": 1680,
      "193": 1681,
      "Correr": 1682,
      "Trabalhar": 1683,
      "Haskell": 1684,
      "proces": 1685,
      "empreendedorismo": 1686,
      "Nao": 1687,
      "Fast": 1688,
      "cada": 1689,
      "FastAPI": 1690,
      "fu": 1691,
      "cias": 1692,
      "estudo": 1693,
      "posso": 1694,
      "pela": 1695,
      "esportes": 1696,
      "ram": 1697,
      "My": 1698,
      "onde": 1699,
      "The": 1700,
      "marketing": 1701,
      "Aprender": 1702,
      "prote": 1703,
      "resol": 1704,
      "MySQL": 1705,
      "movi": 1706,
      "Elix": 1707,
      "jardinagem": 1708,
      "Elixir": 1709,
      "suas": 1710,
      "essen": 1711,
      "ló": 1712,
      "tis": 1713,
      "quad": 1714,
      "sistemas": 1715,
      "nor": 1716,
      "conte": 1717,
      "sustentabilidade": 1718,
      "ara": 1719,
      "vendas": 1720,
      "Caminhar": 1721,
      "arqui": 1722,
      "decora": 1723,
      "inf": 1724,
      "loop": 1725,
      "difere": 1726,
      "star": 1727,
      "lia": 1728,
      "algue": 1729,
      "tria": 1730,
      "cultura": 1731,
      "Amei": 1732,
      "alguem": 1733,
      "tras": 1734,
      "proble": 1735,
      "ds": 1736,
      "ível": 1737,
      "stro": 1738,
      "pon": 1739,
      "call": 1740,
      "1945": 1741,
      "inovacao": 1742,
      "rapido": 1743,
      "água": 1744,
      "psicologia": 1745,
      "rias": 1746,
      "espa": 1747,
      "ciar": 1748,
      "consistente": 1749,
      "univer": 1750,
      "ana": 1751,
      "plica": 1752,
      "Clas": 1753,
      "Olha": 1754,
      "cos": 1755,
      "verdade": 1756,
      "ras": 1757,
      "++?": 1758,
      "Sobre": 1759,
      "array": 1760,
      "ace": 1761,
      "lhoes": 1762,
      "siedade": 1763,
      "Incrivel": 1764,
      "ável": 1765,
      "cons": 1766,
      "informa": 1767,
      "mental": 1768,
      "está": 1769,
      "bu": 1770,
      "có": 1771,
      "iu": 1772,
      "cerebro": 1773,
      "elif": 1774,
      "qué": 1775,
      "Joao": 1776,
      "Descansar": 1777,
      "nutricao": 1778,
      "exer": 1779,
      "popu": 1780,
      "())": 1781,
      "Ana": 1782,
      "Ler": 1783,
      "t__": 1784,
      "var": 1785,
      "},": 1786,
      "sex": 1787,
      "entes": 1788,
      "init__": 1789,
      "pratico": 1790,
      "__init__": 1791,
      "Funcao": 1792,
      "callback": 1793,
      "Classe": 1794,
      "amo": 1795,
      "lí": 1796,
      "complexo": 1797,
      "anti": 1798,
      "Com": 1799,
      "Segunda": 1800,
      "celu": 1801,
      "metria": 1802,
      "heiro": 1803,
      "az": 1804,
      "Ge": 1805,
      "doen": 1806,
      "lida": 1807,
      "pring": 1808,
      "mis": 1809,
      "Scala": 1810,
      "teatro": 1811,
      "Spring": 1812,
      "medicina": 1813,
      "ami": 1814,
      "ts": 1815,
      "web": 1816,
      "ás": 1817,
      "toma": 1818,
      "computa": 1819,
      "ig": 1820,
      "neurais": 1821,
      "música": 1822,
      "rece": 1823,
      "what": 1824,
      "1939": 1825,
      "volta": 1826,
      "itos": 1827,
      "terrest": 1828,
      "nica": 1829,
      "nios": 1830,
      "dica": 1831,
      "brasileiro": 1832,
      "Ne": 1833,
      "sur": 1834,
      "ticas": 1835,
      "terrestre": 1836,
      "nto": 1837,
      "rapia": 1838,
      "Sou": 1839,
      "nú": 1840,
      "apreciar": 1841,
      "culinaria": 1842,
      "gebra": 1843,
      "Viagem": 1844,
      "tamento": 1845,
      "minu": 1846,
      "icos": 1847,
      "gui": 1848,
      "ém": 1849,
      "vivo": 1850,
      "mite": 1851,
      "genera": 1852,
      "Geo": 1853,
      "internet": 1854,
      "Inc": 1855,
      "cé": 1856,
      "base": 1857,
      "perio": 1858,
      "haria": 1859,
      "curtir": 1860,
      "Estou": 1861,
      "genharia": 1862,
      "tifi": 1863,
      "km": 1864,
      "úde": 1865,
      "estudando": 1866,
      "ban": 1867,
      "ger": 1868,
      "ário": 1869,
      "pes": 1870,
      "esti": 1871,
      "movimento": 1872,
      "estru": 1873,
      "Ele": 1874,
      "Mar": 1875,
      "uem": 1876,
      "terapia": 1877,
      "estrutura": 1878,
      "som": 1879,
      "rica": 1880,
      "gover": 1881,
      "gostar": 1882,
      "pera": 1883,
      "reza": 1884,
      "maz": 1885,
      "redes": 1886,
      "contra": 1887,
      "leva": 1888,
      "condi": 1889,
      "contro": 1890,
      "relaciona": 1891,
      "falta": 1892,
      "}!')": 1893,
      "cresce": 1894,
      "pú": 1895,
      "púb": 1896,
      "muita": 1897,
      "ética": 1898,
      "mag": 1899,
      "ize": 1900,
      "ciais": 1901,
      "neuro": 1902,
      "normal": 1903,
      "celular": 1904,
      "ador": 1905,
      "cui": 1906,
      "hen": 1907,
      "pia": 1908,
      "juntos": 1909,
      "lica": 1910,
      "obri": 1911,
      "natureza": 1912,
      "dinheiro": 1913,
      "conver": 1914,
      "Fera": 1915,
      "Francesa": 1916,
      "ór": 1917,
      "servi": 1918,
      "desco": 1919,
      "For": 1920,
      "has": 1921,
      "No": 1922,
      "Ra": 1923,
      "cra": 1924,
      "lui": 1925,
      "saúde": 1926,
      "ciência": 1927,
      "vio": 1928,
      "bilhoes": 1929,
      "natural": 1930,
      "ide": 1931,
      "amar": 1932,
      "adoro": 1933,
      "ças": 1934,
      "tistica": 1935,
      "inas": 1936,
      "minutos": 1937,
      "cli": 1938,
      "redor": 1939,
      "fiquei": 1940,
      "Arte": 1941,
      "ke": 1942,
      "duz": 1943,
      "od": 1944,
      "revolu": 1945,
      "mante": 1946,
      "cir": 1947,
      "Revolucao": 1948,
      "Mu": 1949,
      "lue": 1950,
      "independe": 1951,
      "ela": 1952,
      "duvida": 1953,
      "_learning": 1954,
      "pan": 1955,
      "domin": 1956,
      "ansiedade": 1957,
      "rios": 1958,
      "sion": 1959,
      "gens": 1960,
      "Inclui": 1961,
      "Espor": 1962,
      "humano": 1963,
      "178": 1964,
      "fro": 1965,
      "og": 1966,
      "Romano": 1967,
      "1789": 1968,
      "Bacana": 1969,
      "Minha": 1970,
      "Pi": 1971,
      "geometria": 1972,
      "conhecimento": 1973,
      "universo": 1974,
      "cesso": 1975,
      "oi": 1976,
      "pesso": 1977,
      "tin": 1978,
      "bou": 1979,
      "passa": 1980,
      "coisa": 1981,
      "solar": 1982,
      "Cel": 1983,
      "Ela": 1984,
      "ação": 1985,
      "fin": 1986,
      "lor": 1987,
      "mm": 1988,
      "ncial": 1989,
      "cobre": 1990,
      "enta": 1991,
      "intelig": 1992,
      "quanto": 1993,
      "perguntou": 1994,
      "fre": 1995,
      "viaja": 1996,
      "ticos": 1997,
      "processa": 1998,
      "humor": 1999,
      "21": 2000,
      "71": 2001,
      "ón": 2002,
      "del": 2003,
      "regi": 2004,
      "engenharia": 2005,
      "plicar": 2006,
      "micas": 2007,
      "usada": 2008,
      "180": 2009,
      "quadrada": 2010,
      "lidao": 2011,
      "liza": 2012,
      "mizar": 2013,
      "fismo": 2014,
      "mun": 2015,
      "compre": 2016,
      "peso": 2017,
      "iologia": 2018,
      "azul": 2019,
      "governo": 2020,
      "lti": 2021,
      "sub": 2022,
      "50": 2023,
      "rá": 2024,
      "caiu": 2025,
      "intera": 2026,
      "mine": 2027,
      "pressao": 2028,
      "estado": 2029,
      "artifi": 2030,
      "cil": 2031,
      "lhões": 2032,
      "lação": 2033,
      "imor": 2034,
      "essencial": 2035,
      "cap": 2036,
      "tual": 2037,
      "carre": 2038,
      "43": 2039,
      "Ci": 2040,
      "we": 2041,
      "descan": 2042,
      "polimor": 2043,
      "1415": 2044,
      "ficie": 2045,
      "superficie": 2046,
      "Imperio": 2047,
      "polimorfismo": 2048,
      "14159": 2049,
      "Fi": 2050,
      "san": 2051,
      "brasileira": 2052,
      "antes": 2053,
      "76": 2054,
      "ater": 2055,
      "rado": 2056,
      "moder": 2057,
      "Eve": 2058,
      "It": 2059,
      "Mate": 2060,
      "Qui": 2061,
      "Um": 2062,
      "lem": 2063,
      "pé": 2064,
      "tado": 2065,
      "tipo": 2066,
      "triangu": 2067,
      "berto": 2068,
      "Everest": 2069,
      "Mo": 2070,
      "vezes": 2071,
      "29": 2072,
      "presen": 2073,
      "rança": 2074,
      "gênio": 2075,
      "outros": 2076,
      "Nor": 2077,
      "aplicar": 2078,
      "br": 2079,
      "estrela": 2080,
      "Exempl": 2081,
      "Matematica": 2082,
      "Ca": 2083,
      "dá": 2084,
      "igo": 2085,
      "tí": 2086,
      "side": 2087,
      "ança": 2088,
      "ós": 2089,
      "343": 2090,
      "4mm": 2091,
      "476": 2092,
      "Cu": 2093,
      "sius": 2094,
      "dial": 2095,
      "polí": 2096,
      "Geografia": 2097,
      "adorar": 2098,
      "Celsius": 2099,
      "Quimica": 2100,
      "ty": 2101,
      "Astro": 2102,
      "oxi": 2103,
      "ática": 2104,
      "ruim": 2105,
      "plates": 2106,
      "Funda": 2107,
      "Astronomia": 2108,
      "dias": 2109,
      "Lite": 2110,
      "ato": 2111,
      "atra": 2112,
      "ene": 2113,
      "social": 2114,
      "vita": 2115,
      "problemas": 2116,
      "Literatura": 2117,
      "lon": 2118,
      "melhorar": 2119,
      "Nu": 2120,
      "gni": 2121,
      "templates": 2122,
      "quí": 2123,
      "termin": 2124,
      "resolver": 2125,
      "unidade": 2126,
      "triste": 2127,
      "ví": 2128,
      "angulos": 2129,
      "Raiz": 2130,
      "triangulo": 2131,
      "Cada": 2132,
      "ign": 2133,
      "incl": 2134,
      "nou": 2135,
      "obje": 2136,
      "transforma": 2137,
      "lóg": 2138,
      "piada": 2139,
      "tação": 2140,
      "istas": 2141,
      "414": 2142,
      "Sustentabilidade": 2143,
      "taman": 2144,
      "seus": 2145,
      "tores": 2146,
      "pró": 2147,
      "alimentos": 2148,
      "núme": 2149,
      "Musica": 2150,
      "mineral": 2151,
      "41421": 2152,
      "tamanho": 2153,
      "Ni": 2154,
      "gh": 2155,
      "1500": 2156,
      "ogle": 2157,
      "20": 2158,
      "pul": 2159,
      "Ho": 2160,
      "ida": 2161,
      "water": 2162,
      "permite": 2163,
      "heranca": 2164,
      "gira": 2165,
      "comecou": 2166,
      "classes": 2167,
      "ferve": 2168,
      "ncialismo": 2169,
      "Design": 2170,
      "vos": 2171,
      "confi": 2172,
      "Google": 2173,
      "chegar": 2174,
      "certo": 2175,
      "solu": 2176,
      "El": 2177,
      "end": 2178,
      "sei": 2179,
      "país": 2180,
      "pressão": 2181,
      "Tecnologia": 2182,
      "berdade": 2183,
      "popular": 2184,
      "algebra": 2185,
      "bale": 2186,
      "Empre": 2187,
      "uição": 2188,
      "ag": 2189,
      "fé": 2190,
      "hil": 2191,
      "mem": 2192,
      "cama": 2193,
      "nova": 2194,
      "sentido": 2195,
      "parti": 2196,
      "bir": 2197,
      "Filosofia": 2198,
      "cta": 2199,
      "dicion": 2200,
      "cular": 2201,
      "ganhar": 2202,
      "Biologia": 2203,
      "ativa": 2204,
      "vc": 2205,
      "ál": 2206,
      "menos": 2207,
      "Todo": 2208,
      "ôn": 2209,
      "exerci": 2210,
      "Fisica": 2211,
      "ct": 2212,
      "emo": 2213,
      "xo": 2214,
      "ceu": 2215,
      "mentação": 2216,
      "mides": 2217,
      "define": 2218,
      "188": 2219,
      "conheci": 2220,
      "ângu": 2221,
      "variavel": 2222,
      "gênero": 2223,
      "arquivo": 2224,
      "decoradores": 2225,
      "Jogos": 2226,
      "ências": 2227,
      "ner": 2228,
      "sus": 2229,
      "Educacao": 2230,
      "cle": 2231,
      "ima": 2232,
      "mí": 2233,
      "sas": 2234,
      "into": 2235,
      "estuda": 2236,
      "experi": 2237,
      "variaveis": 2238,
      "valores": 2239,
      "séri": 2240,
      "obrigado": 2241,
      "tória": 2242,
      "inteligência": 2243,
      "La": 2244,
      "dra": 2245,
      "ming": 2246,
      "vamos": 2247,
      "bora": 2248,
      "contin": 2249,
      "culos": 2250,
      "formas": 2251,
      "qualquer": 2252,
      "condicional": 2253,
      "descoberto": 2254,
      "Nutri": 2255,
      "hilismo": 2256,
      "birds": 2257,
      "senti": 2258,
      "nicas": 2259,
      "86": 2260,
      "Al": 2261,
      "Fil": 2262,
      "Pre": 2263,
      "Para": 2264,
      "glo": 2265,
      "ía": 2266,
      "funcoes": 2267,
      "merda": 2268,
      "doença": 2269,
      "todos": 2270,
      "calor": 2271,
      "artificial": 2272,
      "auto": 2273,
      "tivos": 2274,
      "Fit": 2275,
      "Uma": 2276,
      "dr": 2277,
      "dico": 2278,
      "equi": 2279,
      "you": 2280,
      "signi": 2281,
      "sobrevi": 2282,
      "lamento": 2283,
      "excecao": 2284,
      "sangue": 2285,
      "Fundamental": 2286,
      "dicionario": 2287,
      "série": 2288,
      "Fitness": 2289,
      "significa": 2290,
      "lidar": 2291,
      "ame": 2292,
      "dura": 2293,
      "Base": 2294,
      "junto": 2295,
      "Pe": 2296,
      "list": 2297,
      "tão": 2298,
      "és": 2299,
      "soz": 2300,
      "duro": 2301,
      "neces": 2302,
      "servidor": 2303,
      "Jardinagem": 2304,
      "aconte": 2305,
      "cro": 2306,
      "dência": 2307,
      "hy": 2308,
      "pcios": 2309,
      "conex": 2310,
      "difí": 2311,
      "carro": 2312,
      "carbo": 2313,
      "aprende": 2314,
      "objetos": 2315,
      "Politica": 2316,
      "calculo": 2317,
      "morte": 2318,
      "light": 2319,
      "decorador": 2320,
      "generator": 2321,
      "hension": 2322,
      "comprehension": 2323,
      "novas": 2324,
      "Foi": 2325,
      "Sen": 2326,
      "JS": 2327,
      "ori": 2328,
      "Meio": 2329,
      "divi": 2330,
      "volui": 2331,
      "loops": 2332,
      "Egi": 2333,
      "Hum": 2334,
      "mt": 2335,
      "área": 2336,
      "otimizar": 2337,
      "construiram": 2338,
      "mida": 2339,
      "Sociologia": 2340,
      "maiores": 2341,
      "estatistica": 2342,
      "piramides": 2343,
      "até": 2344,
      "alimentar": 2345,
      "4500": 2346,
      "arrays": 2347,
      "Egipcios": 2348,
      "má": 2349,
      "alg": 2350,
      "Ser": 2351,
      "pessoa": 2352,
      "bol": 2353,
      "segunda": 2354,
      "corre": 2355,
      "guerra": 2356,
      "jus": 2357,
      "ls": 2358,
      "áto": 2359,
      "comeu": 2360,
      "voam": 2361,
      "ción": 2362,
      "nave": 2363,
      "perigo": 2364,
      "diamante": 2365,
      "ciou": 2366,
      "tenha": 2367,
      "direito": 2368,
      "criatividade": 2369,
      "luen": 2370,
      "dominar": 2371,
      "mingbirds": 2372,
      "Nutricao": 2373,
      "Hummingbirds": 2374,
      "fri": 2375,
      "conse": 2376,
      "cerca": 2377,
      "titu": 2378,
      "game": 2379,
      "DN": 2380,
      "apro": 2381,
      "ró": 2382,
      "ys": 2383,
      "teor": 2384,
      "istem": 2385,
      "euro": 2386,
      "velo": 2387,
      "pratique": 2388,
      "produz": 2389,
      "multi": 2390,
      "Ani": 2391,
      "His": 2392,
      "cs": 2393,
      "arth": 2394,
      "react": 2395,
      "mode": 2396,
      "encap": 2397,
      "solidao": 2398,
      "una": 2399,
      "culas": 2400,
      "sulamento": 2401,
      "interfa": 2402,
      "trib": 2403,
      "rough": 2404,
      "callbacks": 2405,
      "cuida": 2406,
      "from": 2407,
      "baleia": 2408,
      "Empreendedorismo": 2409,
      "encapsulamento": 2410,
      "ie": 2411,
      "elé": 2412,
      "amigos": 2413,
      "Esportes": 2414,
      "brasil": 2415,
      "tex": 2416,
      "apo": 2417,
      "bai": 2418,
      "nta": 2419,
      "vá": 2420,
      "turo": 2421,
      "grande": 2422,
      "ninguem": 2423,
      "dormiu": 2424,
      "ização": 2425,
      "mises": 2426,
      "ain": 2427,
      "gada": 2428,
      "pital": 2429,
      "dão": 2430,
      "eai": 2431,
      "fis": 2432,
      "ola": 2433,
      "sun": 2434,
      "that": 2435,
      "vés": 2436,
      "dido": 2437,
      "processo": 2438,
      "promises": 2439,
      "through": 2440,
      "stru": 2441,
      "Teatro": 2442,
      "independencia": 2443,
      "sozinho": 2444,
      "navega": 2445,
      "casa": 2446,
      "lugar": 2447,
      "Eco": 2448,
      "ox": 2449,
      "ris": 2450,
      "up": 2451,
      "ês": 2452,
      "novidade": 2453,
      "forte": 2454,
      "célu": 2455,
      "oxigênio": 2456,
      "global": 2457,
      "ula": 2458,
      "10": 2459,
      "tare": 2460,
      "Earth": 2461,
      "ed": 2462,
      "far": 2463,
      "gam": 2464,
      "decis": 2465,
      "reduz": 2466,
      "entra": 2467,
      "ecos": 2468,
      "Revolução": 2469,
      "futuro": 2470,
      "Negocios": 2471,
      "neuronios": 2472,
      "Culinaria": 2473,
      "número": 2474,
      "Historia": 2475,
      "novidades": 2476,
      "aque": 2477,
      "milhões": 2478,
      "Res": 2479,
      "tada": 2480,
      "quan": 2481,
      "ks": 2482,
      "humana": 2483,
      "Car": 2484,
      "nem": 2485,
      "êm": 2486,
      "ores": 2487,
      "ren": 2488,
      "mou": 2489,
      "logo": 2490,
      "musical": 2491,
      "beca": 2492,
      "informações": 2493,
      "lógico": 2494,
      "peque": 2495,
      "Rio": 2496,
      "Ano": 2497,
      "Py": 2498,
      "Pau": 2499,
      "Uni": 2500,
      "dur": 2501,
      "determin": 2502,
      "maté": 2503,
      "tamb": 2504,
      "cado": 2505,
      "capa": 2506,
      "hos": 2507,
      "node": 2508,
      "parte": 2509,
      "estre": 2510,
      "estão": 2511,
      "medica": 2512,
      "plano": 2513,
      "Fotografia": 2514,
      "computador": 2515,
      "Marketing": 2516,
      "difícil": 2517,
      "Senti": 2518,
      "Economia": 2519,
      "digi": 2520,
      "tros": 2521,
      "trica": 2522,
      "respon": 2523,
      "Tran": 2524,
      "evolui": 2525,
      "ônica": 2526,
      "depressao": 2527,
      "tan": 2528,
      "istir": 2529,
      "assim": 2530,
      "escre": 2531,
      "serva": 2532,
      "desde": 2533,
      "gica": 2534,
      "exercí": 2535,
      "igual": 2536,
      "Ha": 2537,
      "problema": 2538,
      "ix": 2539,
      "66": 2540,
      "?!": 2541,
      "Sau": 2542,
      "ações": 2543,
      "equ": 2544,
      "our": 2545,
      "why": 2546,
      "ária": 2547,
      "Comida": 2548,
      "ciedade": 2549,
      "loca": 2550,
      "dir": 2551,
      "elec": 2552,
      "giu": 2553,
      "princi": 2554,
      "diversidade": 2555,
      "atmos": 2556,
      "existencialismo": 2557,
      "pública": 2558,
      "pessoas": 2559,
      "ângulo": 2560,
      "modelo": 2561,
      "Paulo": 2562,
      "matéria": 2563,
      "também": 2564,
      "Saude": 2565,
      "lou": 2566,
      "70": 2567,
      "Ven": 2568,
      "bis": 2569,
      "fru": 2570,
      "human": 2571,
      "sando": 2572,
      "ância": 2573,
      "dest": 2574,
      "cam": 2575,
      "cone": 2576,
      "mil": 2577,
      "kkkk": 2578,
      "200": 2579,
      "ração": 2580,
      "gases": 2581,
      "22": 2582,
      "Cine": 2583,
      "Fim": 2584,
      "Psicologia": 2585,
      "clear": 2586,
      "sí": 2587,
      "pratica": 2588,
      "food": 2589,
      "Esta": 2590,
      "história": 2591,
      "Podcast": 2592,
      "século": 2593,
      "pesquis": 2594,
      "relacionamento": 2595,
      "significado": 2596,
      "velocidade": 2597,
      "bissex": 2598,
      "Cinema": 2599,
      "Aplica": 2600,
      "Amaz": 2601,
      "lico": 2602,
      "bar": 2603,
      "cla": 2604,
      "pais": 2605,
      "low": 2606,
      "tural": 2607,
      "die": 2608,
      "lib": 2609,
      "nuclear": 2610,
      "gene": 2611,
      "ainda": 2612,
      "ft": 2613,
      "lé": 2614,
      "carac": 2615,
      "366": 2616,
      "Ale": 2617,
      "São": 2618,
      "_f": 2619,
      "_neurais": 2620,
      "_guerra": 2621,
      "_brasil": 2622,
      "atual": 2623,
      "ly": 2624,
      "lex": 2625,
      "ms": 2626,
      "mico": 2627,
      "rar": 2628,
      "toda": 2629,
      "stor": 2630,
      "cao_f": 2631,
      "torna": 2632,
      "fome": 2633,
      "padr": 2634,
      "materia": 2635,
      "planetas": 2636,
      "nihilismo": 2637,
      "podem": 2638,
      "produtividade": 2639,
      "machine_learning": 2640,
      "deep_learning": 2641,
      "médico": 2642,
      "física": 2643,
      "diferen": 2644,
      "espaço": 2645,
      "redes_neurais": 2646,
      "revolucao_f": 2647,
      "Exemplo": 2648,
      "segunda_guerra": 2649,
      "luenciou": 2650,
      "teoria": 2651,
      "css": 2652,
      "independencia_brasil": 2653,
      "nodejs": 2654,
      "bissexto": 2655,
      "revolucao_francesa": 2656,
      "itar": 2657,
      "ware": 2658,
      "expres": 2659,
      "cula": 2660,
      "sabi": 2661,
      "transpor": 2662,
      "humanos": 2663,
      "Sem": 2664,
      "tivas": 2665,
      "Par": 2666,
      "Cal": 2667,
      "beb": 2668,
      "hel": 2669,
      "ãos": 2670,
      "memor": 2671,
      "sociais": 2672,
      "esto": 2673,
      "plo": 2674,
      "cido": 2675,
      "poder": 2676,
      "pag": 2677,
      "importantes": 2678,
      "puta": 2679,
      "moderna": 2680,
      "hing": 2681,
      "ona": 2682,
      "texto": 2683,
      "#!": 2684,
      "capital": 2685,
      "pero": 2686,
      "Seu": 2687,
      "oce": 2688,
      "cole": 2689,
      "matem": 2690,
      "mole": 2691,
      "alta": 2692,
      "samb": 2693,
      "fundo": 2694,
      "Deep": 2695,
      "mili": 2696,
      "calma": 2697,
      "transfor": 2698,
      "Tratamento": 2699,
      "ponentes": 2700,
      "Ciencia": 2701,
      "Filme": 2702,
      "átomos": 2703,
      "interfaces": 2704,
      "capacidade": 2705,
      "rede": 2706,
      "pati": 2707,
      "centra": 2708,
      "rápi": 2709,
      "responsabi": 2710,
      "Ti": 2711,
      "UA": 2712,
      "aci": 2713,
      "já": 2714,
      "têm": 2715,
      "zi": 2716,
      "ent": 2717,
      "und": 2718,
      "unca": 2719,
      "segun": 2720,
      "acho": 2721,
      "sinto": 2722,
      "segurança": 2723,
      "caracter": 2724,
      "Tem": 2725,
      "uso": 2726,
      "xima": 2727,
      "Los": 2728,
      "Obri": 2729,
      "ague": 2730,
      "ício": 2731,
      "comece": 2732,
      "reci": 2733,
      "regu": 2734,
      "tomar": 2735,
      "causa": 2736,
      "ismos": 2737,
      "tida": 2738,
      "migas": 2739,
      "++!": 2740,
      "Sul": 2741,
      "cultural": 2742,
      "posição": 2743,
      "controle": 2744,
      "Formigas": 2745,
      "50x": 2746,
      "carregam": 2747,
      "células": 2748,
      "Vendas": 2749,
      "samba": 2750,
      "30": 2751,
      "GP": 2752,
      "gru": 2753,
      "força": 2754,
      "deste": 2755,
      "responsabilidade": 2756,
      "acor": 2757,
      "tel": 2758,
      "orde": 2759,
      "ton": 2760,
      "rial": 2761,
      "posta": 2762,
      "gravidade": 2763,
      "here": 2764,
      "cionais": 2765,
      "manda": 2766,
      "chau": 2767,
      "materiais": 2768,
      "trabalha": 2769,
      "comunica": 2770,
      "alimentação": 2771,
      "muitas": 2772,
      "órg": 2773,
      "II": 2774,
      "elo": 2775,
      "gir": 2776,
      "sentimentos": 2777,
      "17": 2778,
      "ane": 2779,
      "bos": 2780,
      "\".": 2781,
      "Ino": 2782,
      "age": 2783,
      "há": 2784,
      "icidade": 2785,
      "ocu": 2786,
      "sele": 2787,
      "incr": 2788,
      "praz": 2789,
      "conjunto": 2790,
      "pronto": 2791,
      "Redes": 2792,
      "mud": 2793,
      "automa": 2794,
      "energy": 2795,
      "arquite": 2796,
      "cómo": 2797,
      "descansa": 2798,
      "brindo": 2799,
      "Anime": 2800,
      "because": 2801,
      "Inovacao": 2802,
      "ment": 2803,
      "planeta": 2804,
      "199": 2805,
      "Gra": 2806,
      "Mun": 2807,
      "fos": 2808,
      "opera": 2809,
      "rus": 2810,
      "só": 2811,
      "van": 2812,
      "desa": 2813,
      "todas": 2814,
      "sono": 2815,
      "comb": 2816,
      "respe": 2817,
      "cionou": 2818,
      "tratamento": 2819,
      "interpre": 2820,
      "analis": 2821,
      "tions": 2822,
      "ideias": 2823,
      "sidente": 2824,
      "DNA": 2825,
      "exercício": 2826,
      "13": 2827,
      "fli": 2828,
      "Evolu": 2829,
      "abou": 2830,
      "clar": 2831,
      "gro": 2832,
      "vendo": 2833,
      "regular": 2834,
      "sociedade": 2835,
      "bolo": 2836,
      "poli": 2837,
      "dig": 2838,
      "veu": 2839,
      "liga": 2840,
      "like": 2841,
      "foda": 2842,
      "iros": 2843,
      "pios": 2844,
      "especial": 2845,
      "respons": 2846,
      "kkk": 2847,
      "clás": 2848,
      "doenças": 2849,
      "camadas": 2850,
      "ystem": 2851,
      "ecossistemas": 2852,
      "conecta": 2853,
      "Alemanha": 2854,
      "matemática": 2855,
      "Obrigado": 2856,
      "about": 2857,
      "quanti": 2858,
      "quantidade": 2859,
      "este": 2860,
      "parar": 2861,
      "hando": 2862,
      "ses": 2863,
      "spe": 2864,
      "útil": 2865,
      "reu": 2866,
      "reas": 2867,
      "ers": 2868,
      "ase": 2869,
      "propri": 2870,
      "portu": 2871,
      "sente": 2872,
      "paga": 2873,
      "direitos": 2874,
      "absor": 2875,
      "brain": 2876,
      "visual": 2877,
      "istência": 2878,
      "independente": 2879,
      "química": 2880,
      "Mundial": 2881,
      "crime": 2882,
      "gol": 2883,
      "jul": 2884,
      "tarefas": 2885,
      "rápido": 2886,
      "fui": 2887,
      "aí": 2888,
      "sível": 2889,
      "system": 2890,
      "ura": 2891,
      "wit": 2892,
      "coma": 2893,
      "recomen": 2894,
      "represen": 2895,
      "tamente": 2896,
      "dad": 2897,
      "difici": 2898,
      "air": 2899,
      "usando": 2900,
      "penas": 2901,
      "criada": 2902,
      "Tech": 2903,
      "posto": 2904,
      "resolve": 2905,
      "lógica": 2906,
      "relacionamentos": 2907,
      "incluem": 2908,
      "acontece": 2909,
      "arquitetura": 2910,
      "dificil": 2911,
      "Lu": 2912,
      "Medo": 2913,
      "gres": 2914,
      "EUA": 2915,
      "adi": 2916,
      "mus": 2917,
      "ok": 2918,
      "ror": 2919,
      "vul": 2920,
      "ígen": 2921,
      "indu": 2922,
      "alidade": 2923,
      "ancas": 2924,
      "cies": 2925,
      "natura": 2926,
      "ture": 2927,
      "guar": 2928,
      "mesma": 2929,
      "programador": 2930,
      "mundial": 2931,
      "vitamin": 2932,
      "lá": 2933,
      "Cria": 2934,
      "Au": 2935,
      "blio": 2936,
      "xing": 2937,
      "armaz": 2938,
      "tais": 2939,
      "ental": 2940,
      "time": 2941,
      "seres": 2942,
      "promo": 2943,
      "famí": 2944,
      "its": 2945,
      "maioria": 2946,
      "organismos": 2947,
      "resposta": 2948,
      "1822": 2949,
      "biodiversidade": 2950,
      "rapida": 2951,
      "Liv": 2952,
      "Liberdade": 2953,
      "limite": 2954,
      "sexual": 2955,
      "surgiu": 2956,
      "Esporte": 2957,
      "inclui": 2958,
      "Pedro": 2959,
      "Serie": 2960,
      "Trans": 2961,
      "evoluir": 2962,
      "Estatistica": 2963,
      "bliote": 2964,
      "armazen": 2965,
      "pção": 2966,
      "íveis": 2967,
      "lado": 2968,
      "Causa": 2969,
      "patia": 2970,
      "tchau": 2971,
      "Haha": 2972,
      "gresso": 2973,
      "reg": 2974,
      "Ban": 2975,
      "Bran": 2976,
      "gri": 2977,
      "depen": 2978,
      "raz": 2979,
      "ento": 2980,
      "sinal": 2981,
      "constru": 2982,
      "aumenta": 2983,
      "complexos": 2984,
      "superar": 2985,
      "hidro": 2986,
      "circ": 2987,
      "vírus": 2988,
      "imagens": 2989,
      "sobreviv": 2990,
      "segundo": 2991,
      "naturais": 2992,
      "ços": 2993,
      "peratura": 2994,
      "digital": 2995,
      "flito": 2996,
      "Var": 2997,
      "apenas": 2998,
      "nunca": 2999,
      "pac": 3000,
      "deo": 3001,
      "deci": 3002,
      "deve": 3003,
      "cou": 3004,
      "does": 3005,
      "inc": 3006,
      "café": 3007,
      "roman": 3008,
      "eno": 3009,
      "sivo": 3010,
      "cidos": 3011,
      "presidente": 3012,
      "carros": 3013,
      "proje": 3014,
      "liberdade": 3015,
      "perí": 3016,
      "tantes": 3017,
      "integra": 3018,
      "felicidade": 3019,
      "descre": 3020,
      "falou": 3021,
      "elementos": 3022,
      "bita": 3023,
      "trons": 3024,
      "errado": 3025,
      "cursos": 3026,
      "anças": 3027,
      "udou": 3028,
      "thes": 3029,
      "qualidade": 3030,
      "energía": 3031,
      "adap": 3032,
      "núcle": 3033,
      "vivos": 3034,
      "final": 3035,
      "Exemplos": 3036,
      "objetivo": 3037,
      "ônia": 3038,
      "navegador": 3039,
      "entrada": 3040,
      "quantica": 3041,
      "militar": 3042,
      "responsável": 3043,
      "Livro": 3044,
      "vor": 3045,
      "Pr": 3046,
      "bara": 3047,
      "eg": 3048,
      "efici": 3049,
      "gs": 3050,
      "más": 3051,
      "tina": 3052,
      "vista": 3053,
      "revis": 3054,
      "tados": 3055,
      "ques": 3056,
      "ender": 3057,
      "essa": 3058,
      "segui": 3059,
      "funcion": 3060,
      "sentir": 3061,
      "paral": 3062,
      "temperatura": 3063,
      "termo": 3064,
      "organiza": 3065,
      "organize": 3066,
      "196": 3067,
      "dizer": 3068,
      "nossa": 3069,
      "ating": 3070,
      "média": 3071,
      "tém": 3072,
      "consciência": 3073,
      "vari": 3074,
      "banco": 3075,
      "pessoal": 3076,
      "regula": 3077,
      "ocupa": 3078,
      "Fe": 3079,
      "nio": 3080,
      "leve": 3081,
      "econo": 3082,
      "Abrindo": 3083,
      "Mi": 3084,
      "We": 3085,
      "ben": 3086,
      "imag": 3087,
      "nue": 3088,
      "tindo": 3089,
      "vs": 3090,
      "destru": 3091,
      "renda": 3092,
      "esa": 3093,
      "ess": 3094,
      "escra": 3095,
      "vada": 3096,
      "praia": 3097,
      "preven": 3098,
      "quimicas": 3099,
      "muitos": 3100,
      "vidas": 3101,
      "pedir": 3102,
      "foram": 3103,
      "tentá": 3104,
      "mediana": 3105,
      "ters": 3106,
      "their": 3107,
      "Usada": 3108,
      "produção": 3109,
      "your": 3110,
      "código": 3111,
      "magnet": 3112,
      "conversa": 3113,
      "viol": 3114,
      "lembre": 3115,
      "Mostra": 3116,
      "carbono": 3117,
      "núcleo": 3118,
      "gor": 3119,
      "hack": 3120,
      "programação": 3121,
      "clima": 3122,
      "ftware": 3123,
      "Jane": 3124,
      "longo": 3125,
      "Janeiro": 3126,
      "público": 3127,
      "Neuro": 3128,
      "ON": 3129,
      "aces": 3130,
      "ear": 3131,
      "ecu": 3132,
      "nha": 3133,
      "odo": 3134,
      "édia": 3135,
      "teza": 3136,
      "rei": 3137,
      "redi": 3138,
      "ream": 3139,
      "molé": 3140,
      "strial": 3141,
      "lhe": 3142,
      "execu": 3143,
      "ligente": 3144,
      "ondas": 3145,
      "inteligente": 3146,
      "quais": 3147,
      "volume": 3148,
      "corpos": 3149,
      "mudar": 3150,
      "opini": 3151,
      "realidade": 3152,
      "respiracao": 3153,
      "crescimento": 3154,
      "acele": 3155,
      "cérebro": 3156,
      "câ": 3157,
      "vido": 3158,
      "gera": 3159,
      "limpa": 3160,
      "Ch": 3161,
      "alguma": 3162,
      "Abre": 3163,
      "Amé": 3164,
      "Rui": 3165,
      "Ten": 3166,
      "educa": 3167,
      "her": 3168,
      "salve": 3169,
      "deu": 3170,
      "racional": 3171,
      "revolta": 3172,
      "envol": 3173,
      "enquanto": 3174,
      "rir": 3175,
      "vam": 3176,
      "Medi": 3177,
      "nado": 3178,
      "prova": 3179,
      "lion": 3180,
      "função": 3181,
      "fec": 3182,
      "fotos": 3183,
      "Depressao": 3184,
      "nece": 3185,
      "usam": 3186,
      "valeu": 3187,
      "triângulo": 3188,
      "Solidao": 3189,
      "198": 3190,
      "emprego": 3191,
      "distrib": 3192,
      "Existem": 3193,
      "ilum": 3194,
      "backend": 3195,
      "estudos": 3196,
      "verdadeira": 3197,
      "Componentes": 3198,
      "amigo": 3199,
      "controla": 3200,
      "regime": 3201,
      "presente": 3202,
      "Nordeste": 3203,
      "política": 3204,
      "através": 3205,
      "sustentá": 3206,
      "aprove": 3207,
      "durma": 3208,
      "Calculo": 3209,
      "golpe": 3210,
      "with": 3211,
      "Ruim": 3212,
      "ata": 3213,
      "atividade": 3214,
      "reno": 3215,
      "compra": 3216,
      "vity": 3217,
      "proteger": 3218,
      "Dar": 3219,
      "acoes": 3220,
      "agir": 3221,
      "bene": 3222,
      "cál": 3223,
      "cnicas": 3224,
      "tô": 3225,
      "win": 3226,
      "arro": 3227,
      "remo": 3228,
      "isticas": 3229,
      "escura": 3230,
      "espero": 3231,
      "cie": 3232,
      "consu": 3233,
      "cure": 3234,
      "vil": 3235,
      "eus": 3236,
      "fontes": 3237,
      "canica": 3238,
      "chan": 3239,
      "troca": 3240,
      "rimeira": 3241,
      "presas": 3242,
      "sidades": 3243,
      "absolu": 3244,
      "Anti": 3245,
      "Lida": 3246,
      "tório": 3247,
      "diferente": 3248,
      "entao": 3249,
      "carreira": 3250,
      "conexao": 3251,
      "medicamentos": 3252,
      "principal": 3253,
      "storno": 3254,
      "bebe": 3255,
      "caracteristicas": 3256,
      "comunicação": 3257,
      "CO": 3258,
      "cade": 3259,
      "Alia": 3260,
      "Inde": 3261,
      "Pl": 3262,
      "XV": 3263,
      "cuer": 3264,
      "efeito": 3265,
      "ygen": 3266,
      "áreas": 3267,
      "dele": 3268,
      "temos": 3269,
      "celes": 3270,
      "somos": 3271,
      "nacional": 3272,
      "grana": 3273,
      "vibra": 3274,
      "usas": 3275,
      "padro": 3276,
      "quina": 3277,
      "quinas": 3278,
      "duras": 3279,
      "cismo": 3280,
      "000": 3281,
      "defini": 3282,
      "Integra": 3283,
      "Ansiedade": 3284,
      "produtos": 3285,
      "possi": 3286,
      "tário": 3287,
      "xias": 3288,
      "ística": 3289,
      "briga": 3290,
      "diferentes": 3291,
      "estilo": 3292,
      "países": 3293,
      "agri": 3294,
      "continua": 3295,
      "durante": 3296,
      "oxygen": 3297,
      "Univer": 3298,
      "estrelas": 3299,
      "incrível": 3300,
      "clássico": 3301,
      "recomenda": 3302,
      "Vargas": 3303,
      "Aliados": 3304,
      "padroes": 3305,
      "Mach": 3306,
      "empatia": 3307,
      "Reduz": 3308,
      "genu": 3309,
      "vento": 3310,
      "produtivo": 3311,
      "investi": 3312,
      "izade": 3313,
      "Sinto": 3314,
      "favor": 3315,
      "Sar": 3316,
      "ama": 3317,
      "abo": 3318,
      "aga": 3319,
      "bá": 3320,
      "brio": 3321,
      "ários": 3322,
      "ético": 3323,
      "ília": 3324,
      "ônios": 3325,
      "ares": 3326,
      "org": 3327,
      "reb": 3328,
      "ref": 3329,
      "tagem": 3330,
      "entro": 3331,
      "estar": 3332,
      "sito": 3333,
      "convi": 3334,
      "mensa": 3335,
      "faca": 3336,
      "liber": 3337,
      "perda": 3338,
      "chama": 3339,
      "terri": 3340,
      "ficos": 3341,
      "livre": 3342,
      "Existe": 3343,
      "complexas": 3344,
      "líbrio": 3345,
      "financas": 3346,
      "processamento": 3347,
      "1889": 3348,
      "imagem": 3349,
      "Precis": 3350,
      "farma": 3351,
      "frutas": 3352,
      "dieta": 3353,
      "LP": 3354,
      "NLP": 3355,
      "fá": 3356,
      "pub": 3357,
      "údo": 3358,
      "conflito": 3359,
      "peti": 3360,
      "interes": 3361,
      "conteúdo": 3362,
      "Can": 3363,
      "ld": 3364,
      "stit": 3365,
      "leis": 3366,
      "Ide": 3367,
      "aj": 3368,
      "mã": 3369,
      "nando": 3370,
      "oes": 3371,
      "over": 3372,
      "rí": 3373,
      "whi": 3374,
      "when": 3375,
      "ér": 3376,
      "deseja": 3377,
      "radia": 3378,
      "ted": 3379,
      "tecno": 3380,
      "motivo": 3381,
      "tador": 3382,
      "inci": 3383,
      "rico": 3384,
      "espé": 3385,
      "Col": 3386,
      "hou": 3387,
      "ciente": 3388,
      "pole": 3389,
      "previs": 3390,
      "conô": 3391,
      "consi": 3392,
      "expo": 3393,
      "dios": 3394,
      "immun": 3395,
      "prop": 3396,
      "portante": 3397,
      "permi": 3398,
      "volve": 3399,
      "figu": 3400,
      "foca": 3401,
      "intest": 3402,
      "tradi": 3403,
      "chato": 3404,
      "palha": 3405,
      "Jogo": 3406,
      "comuni": 3407,
      "aber": 3408,
      "assun": 3409,
      "ambiental": 3410,
      "transmi": 3411,
      "ferece": 3412,
      "ferente": 3413,
      "lixo": 3414,
      "babilidade": 3415,
      "Importante": 3416,
      "computadores": 3417,
      "cuidar": 3418,
      "cirur": 3419,
      "frente": 3420,
      "memó": 3421,
      "baixa": 3422,
      "atualize": 3423,
      "Tierra": 3424,
      "dependência": 3425,
      "termodin": 3426,
      "magnetismo": 3427,
      "América": 3428,
      "aproveita": 3429,
      "UR": 3430,
      "vável": 3431,
      "cripto": 3432,
      "aquecimento": 3433,
      "Machine": 3434,
      "economizar": 3435,
      "afe": 3436,
      "bran": 3437,
      "chor": 3438,
      "dual": 3439,
      "mito": 3440,
      "tinha": 3441,
      "raza": 3442,
      "recursos": 3443,
      "magn": 3444,
      "tando": 3445,
      "rom": 3446,
      "tiza": 3447,
      "umula": 3448,
      "escu": 3449,
      "vacina": 3450,
      "saida": 3451,
      "lher": 3452,
      "lhas": 3453,
      "exter": 3454,
      "uitos": 3455,
      "habilidade": 3456,
      "versa": 3457,
      "reser": 3458,
      "liz": 3459,
      "amica": 3460,
      "República": 3461,
      "mentais": 3462,
      "bibliote": 3463,
      "mula": 3464,
      "Estado": 3465,
      "garante": 3466,
      "ferramentas": 3467,
      "comer": 3468,
      "sores": 3469,
      "ultra": 3470,
      "justa": 3471,
      "libera": 3472,
      "padrões": 3473,
      "adiciona": 3474,
      "razão": 3475,
      "Sartre": 3476,
      "razao": 3477,
      "roub": 3478,
      "poten": 3479,
      "combu": 3480,
      "extre": 3481,
      "fei": 3482,
      "Depende": 3483,
      "transporte": 3484,
      "combust": 3485,
      "Inter": 3486,
      "receita": 3487,
      "'.": 3488,
      "Der": 3489,
      "Fer": 3490,
      "Mudou": 3491,
      "Nos": 3492,
      "Sal": 3493,
      "aç": 3494,
      "aplica": 3495,
      "danç": 3496,
      "edi": 3497,
      "evi": 3498,
      "frica": 3499,
      "nd": 3500,
      "çou": 3501,
      "ólica": 3502,
      "colo": 3503,
      "tero": 3504,
      "relig": 3505,
      "merece": 3506,
      "metros": 3507,
      "made": 3508,
      "cel": 3509,
      "als": 3510,
      "rit": 3511,
      "plas": 3512,
      "sign": 3513,
      "seman": 3514,
      "cones": 3515,
      "tulo": 3516,
      "propaga": 3517,
      "probabilidade": 3518,
      "respi": 3519,
      "sencial": 3520,
      "tornou": 3521,
      "ionado": 3522,
      "usu": 3523,
      "milhoes": 3524,
      "desvio": 3525,
      "eletri": 3526,
      "nea": 3527,
      "sucesso": 3528,
      "corru": 3529,
      "plantas": 3530,
      "Essencial": 3531,
      "horas": 3532,
      "estados": 3533,
      "Sua": 3534,
      "produce": 3535,
      "Estudo": 3536,
      "Inf": 3537,
      "visionado": 3538,
      "ajudam": 3539,
      "conhecer": 3540,
      "nutrientes": 3541,
      "salário": 3542,
      "mús": 3543,
      "Camus": 3544,
      "ciones": 3545,
      "reacoes": 3546,
      "acesso": 3547,
      "constante": 3548,
      "Geometria": 3549,
      "cliente": 3550,
      "revolucionou": 3551,
      "brar": 3552,
      "Causas": 3553,
      "bolismo": 3554,
      "pesquisa": 3555,
      "ocean": 3556,
      "Evolutivo": 3557,
      "propriedade": 3558,
      "acontecendo": 3559,
      "família": 3560,
      "BranPy": 3561,
      "período": 3562,
      "imagina": 3563,
      "again": 3564,
      "consigo": 3565,
      "URSS": 3566,
      "eletricidade": 3567,
      "RA": 3568,
      "tela": 3569,
      "bilhões": 3570,
      "queijo": 3571,
      "quente": 3572,
      "nasce": 3573,
      "Flex": 3574,
      "Gri": 3575,
      "NN": 3576,
      "dança": 3577,
      "gala": 3578,
      "ido": 3579,
      "nt": 3580,
      "nico": 3581,
      "oport": 3582,
      "psico": 3583,
      "sche": 3584,
      "zsche": 3585,
      "deixa": 3586,
      "rados": 3587,
      "all": 3588,
      "tiz": 3589,
      "rique": 3590,
      "escri": 3591,
      "nomos": 3592,
      "nosso": 3593,
      "composta": 3594,
      "lei": 3595,
      "acredi": 3596,
      "one": 3597,
      "funcionamento": 3598,
      "tensão": 3599,
      "medida": 3600,
      "APIs": 3601,
      "Social": 3602,
      "etzsche": 3603,
      "especí": 3604,
      "busca": 3605,
      "chefe": 3606,
      "dentro": 3607,
      "desig": 3608,
      "fundamental": 3609,
      "investir": 3610,
      "próp": 3611,
      "Nietzsche": 3612,
      "cuidado": 3613,
      "genetica": 3614,
      "diferenca": 3615,
      "respeito": 3616,
      "portugue": 3617,
      "Darwin": 3618,
      "Precisa": 3619,
      "Siste": 3620,
      "deix": 3621,
      "modoro": 3622,
      "perce": 3623,
      "unidades": 3624,
      "consegue": 3625,
      "links": 3626,
      "300": 3627,
      "Man": 3628,
      "PC": 3629,
      "PM": 3630,
      "Rob": 3631,
      "This": 3632,
      "ax": 3633,
      "ay": 3634,
      "bles": 3635,
      "ol": 3636,
      "olho": 3637,
      "ocorre": 3638,
      "sue": 3639,
      "érias": 3640,
      "ícones": 3641,
      "úcar": 3642,
      "rele": 3643,
      "reuni": 3644,
      "indivi": 3645,
      "causar": 3646,
      "isola": 3647,
      "algu": 3648,
      "assistente": 3649,
      "rock": 3650,
      "tiliza": 3651,
      "esse": 3652,
      "homem": 3653,
      "book": 3654,
      "povo": 3655,
      "preço": 3656,
      "setem": 3657,
      "conce": 3658,
      "concentra": 3659,
      "naval": 3660,
      "namb": 3661,
      "cuando": 3662,
      "bombas": 3663,
      "lidos": 3664,
      "leep": 3665,
      "grave": 3666,
      "mart": 3667,
      "aire": 3668,
      "Napole": 3669,
      "través": 3670,
      "Demais": 3671,
      "lina": 3672,
      "durou": 3673,
      "nego": 3674,
      "need": 3675,
      "sufici": 3676,
      "Diferente": 3677,
      "trabalhando": 3678,
      "Lei": 3679,
      "bras": 3680,
      "more": 3681,
      "ísmo": 3682,
      "bura": 3683,
      "manter": 3684,
      "lembra": 3685,
      "camada": 3686,
      "ativacao": 3687,
      "exercite": 3688,
      "equilíbrio": 3689,
      "necessar": 3690,
      "apoio": 3691,
      "igualdade": 3692,
      "atmosfera": 3693,
      "sím": 3694,
      "Aplicacoes": 3695,
      "industrial": 3696,
      "armazena": 3697,
      "sustentável": 3698,
      "possivel": 3699,
      "mãe": 3700,
      "immune": 3701,
      "intestino": 3702,
      "biblioteca": 3703,
      "signals": 3704,
      "Influenciou": 3705,
      "setembro": 3706,
      "mensal": 3707,
      "ganha": 3708,
      "elétri": 3709,
      "onais": 3710,
      "grupos": 3711,
      "regis": 3712,
      "inteligencia": 3713,
      "99": 3714,
      "Iden": 3715,
      "Ter": 3716,
      "XI": 3717,
      "ah": 3718,
      "acao": 3719,
      "dando": 3720,
      "ef": 3721,
      "gia": 3722,
      "primeira": 3723,
      "ína": 3724,
      "dez": 3725,
      "deri": 3726,
      "tecidos": 3727,
      "repre": 3728,
      "insta": 3729,
      "indica": 3730,
      "invista": 3731,
      "independência": 3732,
      "ise": 3733,
      "esca": 3734,
      "espalha": 3735,
      "box": 3736,
      "cima": 3737,
      "ciber": 3738,
      "gonha": 3739,
      "expressão": 3740,
      "proto": 3741,
      "profun": 3742,
      "habi": 3743,
      "grau": 3744,
      "foco": 3745,
      "amizade": 3746,
      "pele": 3747,
      "Def": 3748,
      "duas": 3749,
      "treino": 3750,
      "certeza": 3751,
      "possível": 3752,
      "mercado": 3753,
      "protege": 3754,
      "infini": 3755,
      "popula": 3756,
      "interatividade": 3757,
      "pério": 3758,
      "confiança": 3759,
      "Algebra": 3760,
      "paginas": 3761,
      "órgãos": 3762,
      "prazer": 3763,
      "desafi": 3764,
      "Independe": 3765,
      "agricultura": 3766,
      "Universo": 3767,
      "aboli": 3768,
      "Deriva": 3769,
      "Flexbox": 3770,
      "Grid": 3771,
      "desigual": 3772,
      "representar": 3773,
      "profundas": 3774,
      "Pon": 3775,
      "Sistema": 3776,
      "Dis": 3777,
      "mail": 3778,
      "Ali": 3779,
      "Las": 3780,
      "Rai": 3781,
      "SA": 3782,
      "Sim": 3783,
      "disso": 3784,
      "dável": 3785,
      "ght": 3786,
      "lan": 3787,
      "nar": 3788,
      "pue": 3789,
      "pão": 3790,
      "pala": 3791,
      "tter": 3792,
      "às": 3793,
      "dentes": 3794,
      "color": 3795,
      "orit": 3796,
      "metro": 3797,
      "tamos": 3798,
      "causada": 3799,
      "dação": 3800,
      "esfera": 3801,
      "escala": 3802,
      "siva": 3803,
      "ciden": 3804,
      "gou": 3805,
      "compensa": 3806,
      "conside": 3807,
      "expl": 3808,
      "tude": 3809,
      "dita": 3810,
      "impac": 3811,
      "profunda": 3812,
      "lados": 3813,
      "vergonha": 3814,
      "lide": 3815,
      "persistente": 3816,
      "honesto": 3817,
      "sing": 3818,
      "marca": 3819,
      "Rede": 3820,
      "Revolta": 3821,
      "pelos": 3822,
      "relatividade": 3823,
      "desper": 3824,
      "neg": 3825,
      "prática": 3826,
      "estresse": 3827,
      "triz": 3828,
      "fase": 3829,
      "aves": 3830,
      "após": 3831,
      "them": 3832,
      "geral": 3833,
      "observa": 3834,
      "ossos": 3835,
      "inspira": 3836,
      "Pernamb": 3837,
      "gastos": 3838,
      "ficam": 3839,
      "ligência": 3840,
      "backpropaga": 3841,
      "cent": 3842,
      "influenciou": 3843,
      "líqui": 3844,
      "missão": 3845,
      "tomando": 3846,
      "loresta": 3847,
      "região": 3848,
      "Normal": 3849,
      "tínu": 3850,
      "algorit": 3851,
      "friar": 3852,
      "aproxima": 3853,
      "Carnaval": 3854,
      "electri": 3855,
      "destrui": 3856,
      "Amazônia": 3857,
      "help": 3858,
      "acorde": 3859,
      "inclu": 3860,
      "romance": 3861,
      "cuerpo": 3862,
      "Existencialismo": 3863,
      "Fernando": 3864,
      "cells": 3865,
      "alguém": 3866,
      "Napoleon": 3867,
      "Independencia": 3868,
      "Raiva": 3869,
      "palav": 3870,
      "backpropagation": 3871,
      "Sa": 3872,
      "Ver": 3873,
      "fós": 3874,
      "inta": 3875,
      "quência": 3876,
      "Pronto": 3877,
      "estima": 3878,
      "pequenas": 3879,
      "Aplicações": 3880,
      "fede": 3881,
      "esteja": 3882,
      "Un": 3883,
      "bate": 3884,
      "bur": 3885,
      "faria": 3886,
      "né": 3887,
      "ting": 3888,
      "demo": 3889,
      "mapa": 3890,
      "mação": 3891,
      "dou": 3892,
      "cedo": 3893,
      "erro": 3894,
      "roda": 3895,
      "ropa": 3896,
      "tic": 3897,
      "uiz": 3898,
      "satis": 3899,
      "preso": 3900,
      "seque": 3901,
      "compor": 3902,
      "composi": 3903,
      "existem": 3904,
      "fami": 3905,
      "libe": 3906,
      "leta": 3907,
      "gravita": 3908,
      "vimento": 3909,
      "acumula": 3910,
      "fora": 3911,
      "hei": 3912,
      "Reconhecimento": 3913,
      "usão": 3914,
      "cando": 3915,
      "pensando": 3916,
      "outra": 3917,
      "outras": 3918,
      "gamento": 3919,
      "cinas": 3920,
      "terror": 3921,
      "evolução": 3922,
      "acabou": 3923,
      "Europa": 3924,
      "encontra": 3925,
      "bacte": 3926,
      "ântica": 3927,
      "computacao": 3928,
      "existencia": 3929,
      "New": 3930,
      "magne": 3931,
      "artificiais": 3932,
      "continu": 3933,
      "GPT": 3934,
      "circuitos": 3935,
      "sobrevivencia": 3936,
      "opinião": 3937,
      "distribuição": 3938,
      "cálculo": 3939,
      "negocio": 3940,
      "desigualdade": 3941,
      "familia": 3942,
      "Mode": 3943,
      "eng": 3944,
      "fácil": 3945,
      "serv": 3946,
      "senhas": 3947,
      "Exer": 3948,
      "exercicio": 3949,
      "Face": 3950,
      "Get": 3951,
      "Less": 3952,
      "MP": 3953,
      "Ma": 3954,
      "Pla": 3955,
      "Util": 3956,
      "dício": 3957,
      "eja": 3958,
      "emer": 3959,
      "luna": 3960,
      "onte": 3961,
      "phere": 3962,
      "vindo": 3963,
      "xe": 3964,
      "yn": 3965,
      "ôs": 3966,
      "úlio": 3967,
      "tebol": 3968,
      "mede": 3969,
      "rolou": 3970,
      "tipos": 3971,
      "esque": 3972,
      "esfriar": 3973,
      "hotos": 3974,
      "situ": 3975,
      "sifica": 3976,
      "crimes": 3977,
      "explo": 3978,
      "imi": 3979,
      "procla": 3980,
      "ntend": 3981,
      "levan": 3982,
      "funções": 3983,
      "seria": 3984,
      "servir": 3985,
      "person": 3986,
      "sentindo": 3987,
      "vive": 3988,
      "fic": 3989,
      "feita": 3990,
      "forró": 3991,
      "usto": 3992,
      "pago": 3993,
      "pelas": 3994,
      "tradu": 3995,
      "pensar": 3996,
      "linhas": 3997,
      "quê": 3998,
      "contains": 3999,
      "idades": 4000,
      "tentar": 4001,
      "big": 4002,
      "chá": 4003,
      "PIX": 4004,
      "Espe": 4005,
      "saudável": 4006,
      "fraque": 4007,
      "Envolve": 4008,
      "três": 4009,
      "ariamente": 4010,
      "podero": 4011,
      "metabolismo": 4012,
      "Dom": 4013,
      "eber": 4014,
      "rubou": 4015,
      "Inteligência": 4016,
      "Conhe": 4017,
      "erais": 4018,
      "diversao": 4019,
      "Proble": 4020,
      "iras": 4021,
      "Ass": 4022,
      "ill": 4023,
      "fundamentais": 4024,
      "culdade": 4025,
      "ctions": 4026,
      "respiração": 4027,
      "centagem": 4028,
      "pontos": 4029,
      "espaco": 4030,
      "plicado": 4031,
      "sexo": 4032,
      "perature": 4033,
      "Norte": 4034,
      "atomicas": 4035,
      "números": 4036,
      "Holoca": 4037,
      "nervo": 4038,
      "experiência": 4039,
      "equilib": 4040,
      "necess": 4041,
      "perigosa": 4042,
      "titude": 4043,
      "risco": 4044,
      "atmosphere": 4045,
      "putasso": 4046,
      "aguenta": 4047,
      "ordem": 4048,
      "analisa": 4049,
      "conectados": 4050,
      "Banco": 4051,
      "paralis": 4052,
      "Neuronios": 4053,
      "educação": 4054,
      "Medicina": 4055,
      "necesi": 4056,
      "absoluta": 4057,
      "radiação": 4058,
      "espécies": 4059,
      "memória": 4060,
      "Nossa": 4061,
      "isolados": 4062,
      "símbolo": 4063,
      "cidental": 4064,
      "Facebook": 4065,
      "Getúlio": 4066,
      "levanta": 4067,
      "Holocausto": 4068,
      "sões": 4069,
      "eletr": 4070,
      "pulso": 4071,
      "muscular": 4072,
      "obrigada": 4073,
      "queima": 4074,
      "--": 4075,
      "Cas": 4076,
      "Deus": 4077,
      "beleza": 4078,
      "econô": 4079,
      "fusão": 4080,
      "ier": 4081,
      "iden": 4082,
      "pp": 4083,
      "áveis": 4084,
      "ácido": 4085,
      "coorde": 4086,
      "requis": 4087,
      "mecanica": 4088,
      "taxa": 4089,
      "início": 4090,
      "caus": 4091,
      "eros": 4092,
      "anca": 4093,
      "riga": 4094,
      "vacinas": 4095,
      "stream": 4096,
      "bon": 4097,
      "boas": 4098,
      "polin": 4099,
      "prefere": 4100,
      "comparti": 4101,
      "div": 4102,
      "dida": 4103,
      "ligue": 4104,
      "izados": 4105,
      "fect": 4106,
      "otim": 4107,
      "estude": 4108,
      "desespero": 4109,
      "eletro": 4110,
      "pior": 4111,
      "muda": 4112,
      "sauda": 4113,
      "perguntar": 4114,
      "distor": 4115,
      "Permite": 4116,
      "postos": 4117,
      "visão": 4118,
      "ânico": 4119,
      "ferro": 4120,
      "clim": 4121,
      "sério": 4122,
      "descobri": 4123,
      "Civil": 4124,
      "ônio": 4125,
      "emoções": 4126,
      "conhecida": 4127,
      "decisões": 4128,
      "padrão": 4129,
      "operação": 4130,
      "representa": 4131,
      "barato": 4132,
      "mensagem": 4133,
      "coordena": 4134,
      "11": 4135,
      "riz": 4136,
      "menor": 4137,
      "ximo": 4138,
      "meus": 4139,
      "At": 4140,
      "CV": 4141,
      "Cru": 4142,
      "Fria": 4143,
      "Gil": 4144,
      "NPM": 4145,
      "SU": 4146,
      "Sab": 4147,
      "ak": 4148,
      "avi": 4149,
      "adas": 4150,
      "adu": 4151,
      "amaz": 4152,
      "cy": 4153,
      "cros": 4154,
      "ever": 4155,
      "fiz": 4156,
      "fór": 4157,
      "flow": 4158,
      "gência": 4159,
      "hum": 4160,
      "mão": 4161,
      "sleep": 4162,
      "².": 4163,
      "arran": 4164,
      "rencia": 4165,
      "redu": 4166,
      "relas": 4167,
      "retas": 4168,
      "instru": 4169,
      "emi": 4170,
      "tial": 4171,
      "damente": 4172,
      "vonta": 4173,
      "elas": 4174,
      "praias": 4175,
      "hotel": 4176,
      "criado": 4177,
      "prece": 4178,
      "compro": 4179,
      "comba": 4180,
      "composto": 4181,
      "comédia": 4182,
      "contém": 4183,
      "dió": 4184,
      "dimen": 4185,
      "diga": 4186,
      "dient": 4187,
      "life": 4188,
      "funk": 4189,
      "funcional": 4190,
      "gravity": 4191,
      "gradient": 4192,
      "izado": 4193,
      "partir": 4194,
      "vide": 4195,
      "viciante": 4196,
      "Nacional": 4197,
      "sados": 4198,
      "travel": 4199,
      "mios": 4200,
      "guai": 4201,
      "ouvindo": 4202,
      "contain": 4203,
      "descent": 4204,
      "elemento": 4205,
      "bil": 4206,
      "medicao": 4207,
      "motivação": 4208,
      "planos": 4209,
      "mulher": 4210,
      "paraben": 4211,
      "gerencia": 4212,
      "Engenharia": 4213,
      "genio": 4214,
      "genética": 4215,
      "derrubou": 4216,
      "novos": 4217,
      "etc": 4218,
      "disse": 4219,
      "estat": 4220,
      "transtorno": 4221,
      "inste": 4222,
      "Quando": 4223,
      "Estrelas": 4224,
      "mortos": 4225,
      "ístico": 4226,
      "salva": 4227,
      "bagun": 4228,
      "censu": 4229,
      "múlti": 4230,
      "Lide": 4231,
      "They": 4232,
      "quadrado": 4233,
      "tifique": 4234,
      "ideia": 4235,
      "subst": 4236,
      "polícia": 4237,
      "Nihilismo": 4238,
      "experiencia": 4239,
      "orienta": 4240,
      "máquinas": 4241,
      "consegui": 4242,
      "produzir": 4243,
      "fisiologia": 4244,
      "decisoes": 4245,
      "escreva": 4246,
      "equações": 4247,
      "humanidade": 4248,
      "pagina": 4249,
      "coleta": 4250,
      "órgão": 4251,
      "bossa": 4252,
      "regularmente": 4253,
      "reutiliza": 4254,
      "urante": 4255,
      "guarda": 4256,
      "hidrogênio": 4257,
      "integral": 4258,
      "descreve": 4259,
      "thesis": 4260,
      "ilumin": 4261,
      "Plano": 4262,
      "celestes": 4263,
      "ajudo": 4264,
      "figura": 4265,
      "Salva": 4266,
      "individual": 4267,
      "suficiente": 4268,
      "mensalmente": 4269,
      "Identifique": 4270,
      "derivada": 4271,
      "desperdício": 4272,
      "MPB": 4273,
      "ynthesis": 4274,
      "hotosynthesis": 4275,
      "poderosa": 4276,
      "Problema": 4277,
      "identi": 4278,
      "CVV": 4279,
      "SUS": 4280,
      "parabens": 4281,
      "60": 4282,
      "Game": 4283,
      "Mais": 4284,
      "Or": 4285,
      "eta": 4286,
      "id": 4287,
      "rior": 4288,
      "seis": 4289,
      "licas": 4290,
      "mistura": 4291,
      "gerar": 4292,
      "interesse": 4293,
      "27": 4294,
      "Amazon": 4295,
      "alho": 4296,
      "Comb": 4297,
      "culação": 4298,
      "substit": 4299,
      "90": 4300,
      "estufa": 4301,
      "3D": 4302,
      "Bio": 4303,
      "Equ": 4304,
      "Idade": 4305,
      "LE": 4306,
      "Pan": 4307,
      "RE": 4308,
      "Ren": 4309,
      "ST": 4310,
      "Sta": 4311,
      "UI": 4312,
      "afas": 4313,
      "clo": 4314,
      "dri": 4315,
      "ky": 4316,
      "mônios": 4317,
      "pin": 4318,
      "ume": 4319,
      "ving": 4320,
      "ínas": 4321,
      "arma": 4322,
      "dete": 4323,
      "rende": 4324,
      "recu": 4325,
      "tao": 4326,
      "tale": 4327,
      "tanto": 4328,
      "tons": 4329,
      "aleg": 4330,
      "rob": 4331,
      "estra": 4332,
      "iada": 4333,
      "timos": 4334,
      "aprendendo": 4335,
      "bombe": 4336,
      "perdido": 4337,
      "tempor": 4338,
      "fez": 4339,
      "febre": 4340,
      "simu": 4341,
      "forman": 4342,
      "ampli": 4343,
      "ioso": 4344,
      "relação": 4345,
      "gião": 4346,
      "indígen": 4347,
      "Espera": 4348,
      "trigo": 4349,
      "inação": 4350,
      "195": 4351,
      "aumento": 4352,
      "Procure": 4353,
      "transi": 4354,
      "superfí": 4355,
      "Império": 4356,
      "infin": 4357,
      "informação": 4358,
      "serviços": 4359,
      "conhecido": 4360,
      "mínio": 4361,
      "conexão": 4362,
      "Respira": 4363,
      "campos": 4364,
      "zimas": 4365,
      "quantidades": 4366,
      "vitamina": 4367,
      "benefí": 4368,
      "cadeia": 4369,
      "galaxias": 4370,
      "habitantes": 4371,
      "Newton": 4372,
      "streaming": 4373,
      "vontade": 4374,
      "conqu": 4375,
      "simula": 4376,
      "percepção": 4377,
      "Val": 4378,
      "Big": 4379,
      "Cul": 4380,
      "Einste": 4381,
      "Kier": 4382,
      "Tor": 4383,
      "Vis": 4384,
      "Vac": 4385,
      "You": 4386,
      "]!": 4387,
      "blue": 4388,
      "ding": 4389,
      "ece": 4390,
      "fue": 4391,
      "fran": 4392,
      "frio": 4393,
      "flu": 4394,
      "flex": 4395,
      "gl": 4396,
      "hes": 4397,
      "king": 4398,
      "mio": 4399,
      "ocidental": 4400,
      "py": 4401,
      "smart": 4402,
      "wn": 4403,
      "zin": 4404,
      "çar": 4405,
      "ídu": 4406,
      "ótimo": 4407,
      "ósito": 4408,
      "ôma": 4409,
      "deus": 4410,
      "tesi": 4411,
      "orto": 4412,
      "rem": 4413,
      "revol": 4414,
      "revel": 4415,
      "retorna": 4416,
      "med": 4417,
      "metal": 4418,
      "maquina": 4419,
      "moon": 4420,
      "tab": 4421,
      "inos": 4422,
      "infec": 4423,
      "erros": 4424,
      "alte": 4425,
      "alma": 4426,
      "aler": 4427,
      "ales": 4428,
      "altura": 4429,
      "quebra": 4430,
      "tional": 4431,
      "voz": 4432,
      "esar": 4433,
      "vação": 4434,
      "Copa": 4435,
      "sión": 4436,
      "pop": 4437,
      "local": 4438,
      "uns": 4439,
      "señ": 4440,
      "seca": 4441,
      "confia": 4442,
      "contrib": 4443,
      "contínu": 4444,
      "express": 4445,
      "tugal": 4446,
      "taram": 4447,
      "dimento": 4448,
      "diano": 4449,
      "diariamente": 4450,
      "procura": 4451,
      "layou": 4452,
      "porcentagem": 4453,
      "Quem": 4454,
      "famo": 4455,
      "fadiga": 4456,
      "vege": 4457,
      "resiste": 4458,
      "resul": 4459,
      "resídu": 4460,
      "leite": 4461,
      "perde": 4462,
      "perdi": 4463,
      "Portugal": 4464,
      "sendo": 4465,
      "alada": 4466,
      "temperature": 4467,
      "onda": 4468,
      "pega": 4469,
      "formar": 4470,
      "logias": 4471,
      "animais": 4472,
      "heart": 4473,
      "Real": 4474,
      "goras": 4475,
      "estôma": 4476,
      "gaard": 4477,
      "contato": 4478,
      "anote": 4479,
      "Dire": 4480,
      "apesar": 4481,
      "dist": 4482,
      "guage": 4483,
      "they": 4484,
      "coração": 4485,
      "gaso": 4486,
      "aprendizado": 4487,
      "blood": 4488,
      "visi": 4489,
      "xido": 4490,
      "cidades": 4491,
      "âncias": 4492,
      "crum": 4493,
      "prior": 4494,
      "futebol": 4495,
      "movimentos": 4496,
      "arquia": 4497,
      "consum": 4498,
      "população": 4499,
      "celulas": 4500,
      "amiga": 4501,
      "receber": 4502,
      "banho": 4503,
      "kegaard": 4504,
      "descanse": 4505,
      "Cuando": 4506,
      "longa": 4507,
      "tamanhos": 4508,
      "emocional": 4509,
      "1888": 4510,
      "conhecidos": 4511,
      "ângulos": 4512,
      "aprendem": 4513,
      "frimento": 4514,
      "sunlight": 4515,
      "oxígen": 4516,
      "estrel": 4517,
      "transformou": 4518,
      "respostas": 4519,
      "devemos": 4520,
      "Princi": 4521,
      "nuestro": 4522,
      "ONU": 4523,
      "ears": 4524,
      "arroz": 4525,
      "consul": 4526,
      "Antigo": 4527,
      "território": 4528,
      "which": 4529,
      "assunto": 4530,
      "cirurgias": 4531,
      "termodinamica": 4532,
      "mitologia": 4533,
      "açúcar": 4534,
      "ocorreu": 4535,
      "considerado": 4536,
      "impacto": 4537,
      "precede": 4538,
      "dióxido": 4539,
      "bagunça": 4540,
      "reutilizaveis": 4541,
      "Einstein": 4542,
      "Kierkegaard": 4543,
      "estômago": 4544,
      "oxígeno": 4545,
      "Fa": 4546,
      "PN": 4547,
      "software": 4548,
      "minis": 4549,
      "estran": 4550,
      "interna": 4551,
      "solução": 4552,
      "renovável": 4553,
      "Amazonas": 4554,
      "Dia": 4555,
      "Gui": 4556,
      "Hy": 4557,
      "RS": 4558,
      "Rou": 4559,
      "Tr": 4560,
      "XX": 4561,
      "aos": 4562,
      "ctor": 4563,
      "dru": 4564,
      "han": 4565,
      "nen": 4566,
      "opa": 4567,
      "sum": 4568,
      "war": 4569,
      "ático": 4570,
      "âmica": 4571,
      "ída": 4572,
      "ônicas": 4573,
      "aro": 4574,
      "arit": 4575,
      "domínio": 4576,
      "empresas": 4577,
      "tive": 4578,
      "bolos": 4579,
      "cien": 4580,
      "pobre": 4581,
      "mens": 4582,
      "expan": 4583,
      "tuais": 4584,
      "impossivel": 4585,
      "faço": 4586,
      "graça": 4587,
      "entendo": 4588,
      "torio": 4589,
      "viliza": 4590,
      "logico": 4591,
      "constro": 4592,
      "papel": 4593,
      "padra": 4594,
      "traz": 4595,
      "trata": 4596,
      "quase": 4597,
      "ouro": 4598,
      "gate": 4599,
      "neo": 4600,
      "medio": 4601,
      "chave": 4602,
      "irracional": 4603,
      "tricas": 4604,
      "luta": 4605,
      "começa": 4606,
      "ets": 4607,
      "dispon": 4608,
      "Descar": 4609,
      "restri": 4610,
      "networking": 4611,
      "proteínas": 4612,
      "conteudo": 4613,
      "diferencia": 4614,
      "informacao": 4615,
      "estiliza": 4616,
      "cracia": 4617,
      "moderno": 4618,
      "equação": 4619,
      "molecular": 4620,
      "acidez": 4621,
      "háb": 4622,
      "interpreta": 4623,
      "independentemente": 4624,
      "xinga": 4625,
      "limites": 4626,
      "violência": 4627,
      "moléculas": 4628,
      "remotos": 4629,
      "publica": 4630,
      "chorar": 4631,
      "composicao": 4632,
      "Platão": 4633,
      "equilibrio": 4634,
      "bonito": 4635,
      "indígenas": 4636,
      "padrao": 4637,
      "grá": 4638,
      "media": 4639,
      "pot": 4640,
      "Congresso": 4641,
      "Aprenda": 4642,
      "CO2": 4643,
      "potencial": 4644,
      "arto": 4645,
      "criou": 4646,
      "disposi": 4647,
      "!'": 4648,
      "16": 4649,
      "Ab": 4650,
      "Bras": 4651,
      "Bah": 4652,
      "Eles": 4653,
      "Fra": 4654,
      "Fui": 4655,
      "ID": 4656,
      "Lan": 4657,
      "Oferece": 4658,
      "Ve": 4659,
      "Vida": 4660,
      "agra": 4661,
      "ather": 4662,
      "bact": 4663,
      "cân": 4664,
      "día": 4665,
      "epi": 4666,
      "evento": 4667,
      "ful": 4668,
      "hã": 4669,
      "idos": 4670,
      "lum": 4671,
      "ndi": 4672,
      "ncias": 4673,
      "phon": 4674,
      "sky": 4675,
      "where": 4676,
      "zz": 4677,
      "ár": 4678,
      "áticos": 4679,
      "ño": 4680,
      "ños": 4681,
      "óso": 4682,
      "único": 4683,
      "arti": 4684,
      "dese": 4685,
      "deser": 4686,
      "deplo": 4687,
      "coti": 4688,
      "orgu": 4689,
      "reta": 4690,
      "reli": 4691,
      "repe": 4692,
      "matriz": 4693,
      "madru": 4694,
      "tomia": 4695,
      "inal": 4696,
      "inismo": 4697,
      "incre": 4698,
      "cab": 4699,
      "cabe": 4700,
      "isti": 4701,
      "almo": 4702,
      "alto": 4703,
      "also": 4704,
      "enrique": 4705,
      "tiene": 4706,
      "antir": 4707,
      "soni": 4708,
      "espi": 4709,
      "iao": 4710,
      "elog": 4711,
      "stria": 4712,
      "sicas": 4713,
      "cida": 4714,
      "cidad": 4715,
      "pomodoro": 4716,
      "lhar": 4717,
      "compan": 4718,
      "cong": 4719,
      "conser": 4720,
      "confu": 4721,
      "existência": 4722,
      "brega": 4723,
      "dif": 4724,
      "ham": 4725,
      "fação": 4726,
      "resume": 4727,
      "cubo": 4728,
      "led": 4729,
      "grat": 4730,
      "peri": 4731,
      "perar": 4732,
      "perspe": 4733,
      "dormin": 4734,
      "acte": 4735,
      "sinte": 4736,
      "fibras": 4737,
      "marcou": 4738,
      "form": 4739,
      "forcas": 4740,
      "heat": 4741,
      "Reci": 4742,
      "miles": 4743,
      "monarquia": 4744,
      "guês": 4745,
      "inicia": 4746,
      "manhã": 4747,
      "descar": 4748,
      "desistir": 4749,
      "++.": 4750,
      "pica": 4751,
      "pitais": 4752,
      "bias": 4753,
      "guns": 4754,
      "chaves": 4755,
      "trones": 4756,
      "other": 4757,
      "planejar": 4758,
      "than": 4759,
      "thing": 4760,
      "meses": 4761,
      "Software": 4762,
      "unos": 4763,
      "defesa": 4764,
      "opções": 4765,
      "João": 4766,
      "podemos": 4767,
      "diologia": 4768,
      "coragem": 4769,
      "Produ": 4770,
      "biologico": 4771,
      "completa": 4772,
      "gastronomia": 4773,
      "betes": 4774,
      "ferson": 4775,
      "ferências": 4776,
      "realizar": 4777,
      "ísticas": 4778,
      "centro": 4779,
      "ists": 4780,
      "valoriza": 4781,
      "crônica": 4782,
      "process": 4783,
      "essencia": 4784,
      "essenciais": 4785,
      "essential": 4786,
      "espacada": 4787,
      "anatomia": 4788,
      "líder": 4789,
      "heiros": 4790,
      "guidade": 4791,
      "revolução": 4792,
      "interacoes": 4793,
      "modernos": 4794,
      "vídeo": 4795,
      "lógicos": 4796,
      "férias": 4797,
      "dratos": 4798,
      "amea": 4799,
      "origem": 4800,
      "europ": 4801,
      "escrever": 4802,
      "principais": 4803,
      "transformar": 4804,
      "grupo": 4805,
      "trabalhador": 4806,
      "Grande": 4807,
      "absorve": 4808,
      "decide": 4809,
      "these": 4810,
      "eficiência": 4811,
      "revisao": 4812,
      "molécula": 4813,
      "cânica": 4814,
      "lions": 4815,
      "change": 4816,
      "principalmente": 4817,
      "orgâ": 4818,
      "expose": 4819,
      "propósito": 4820,
      "comunique": 4821,
      "oportunidade": 4822,
      "acredito": 4823,
      "axé": 4824,
      "reunião": 4825,
      "ditadura": 4826,
      "Pernambuco": 4827,
      "líquido": 4828,
      "Moder": 4829,
      "servicos": 4830,
      "personalidade": 4831,
      "necessário": 4832,
      "crosta": 4833,
      "fórmula": 4834,
      "iluministas": 4835,
      "superfície": 4836,
      "infinitos": 4837,
      "layout": 4838,
      "resíduos": 4839,
      "distância": 4840,
      "Principios": 4841,
      "Brasília": 4842,
      "Bahia": 4843,
      "Language": 4844,
      "deploy": 4845,
      "cotidiano": 4846,
      "madrugada": 4847,
      "cabeça": 4848,
      "dormindo": 4849,
      "80": 4850,
      "Dur": 4851,
      "bbi": 4852,
      "ipu": 4853,
      "moe": 4854,
      "hobbi": 4855,
      "desma": 4856,
      "comuns": 4857,
      "limitar": 4858,
      "tarefa": 4859,
      "Criada": 4860,
      "fósseis": 4861,
      "hobbies": 4862,
      "Mer": 4863,
      "sia": 4864,
      "yer": 4865,
      "indi": 4866,
      "infra": 4867,
      "ovos": 4868,
      "Cui": 4869,
      "Ato": 4870,
      "BE": 4871,
      "Bro": 4872,
      "CA": 4873,
      "MC": 4874,
      "Mor": 4875,
      "Mul": 4876,
      "Net": 4877,
      "Ros": 4878,
      "apa": 4879,
      "agu": 4880,
      "h6": 4881,
      "ies": 4882,
      "ição": 4883,
      "ilegal": 4884,
      "rão": 4885,
      "ânea": 4886,
      "óte": 4887,
      "dever": 4888,
      "deres": 4889,
      "raiz": 4890,
      "redo": 4891,
      "reprodu": 4892,
      "renova": 4893,
      "recompensa": 4894,
      "move": 4895,
      "errar": 4896,
      "ases": 4897,
      "enzimas": 4898,
      "elim": 4899,
      "Come": 4900,
      "cipa": 4901,
      "Media": 4902,
      "existir": 4903,
      "img": 4904,
      "progresso": 4905,
      "vermel": 4906,
      "faça": 4907,
      "libra": 4908,
      "letras": 4909,
      "grafos": 4910,
      "partes": 4911,
      "achar": 4912,
      "sinais": 4913,
      "forms": 4914,
      "fortale": 4915,
      "fonte": 4916,
      "inten": 4917,
      "urgente": 4918,
      "passado": 4919,
      "desenvolvimento": 4920,
      "ouca": 4921,
      "poucos": 4922,
      "tend": 4923,
      "tenção": 4924,
      "negro": 4925,
      "chu": 4926,
      "vidao": 4927,
      "Escra": 4928,
      "Tags": 4929,
      "treina": 4930,
      "lineares": 4931,
      "try": 4932,
      "exces": 4933,
      "excesso": 4934,
      "machu": 4935,
      "pensamentos": 4936,
      "ântico": 4937,
      "ferência": 4938,
      "corporal": 4939,
      "físico": 4940,
      "istóte": 4941,
      "séria": 4942,
      "drogas": 4943,
      "Aristóte": 4944,
      "Roma": 4945,
      "cípios": 4946,
      "proteção": 4947,
      "aceito": 4948,
      "líderes": 4949,
      "particulas": 4950,
      "sentimento": 4951,
      "JSON": 4952,
      "baixo": 4953,
      "várias": 4954,
      "vários": 4955,
      "digitais": 4956,
      "diferença": 4957,
      "memoria": 4958,
      "prazo": 4959,
      "combin": 4960,
      "ligacoes": 4961,
      "xingar": 4962,
      "Integral": 4963,
      "Sintomas": 4964,
      "afeta": 4965,
      "escuro": 4966,
      "reserva": 4967,
      "semanas": 4968,
      "músculo": 4969,
      "própria": 4970,
      "Pontos": 4971,
      "marcacao": 4972,
      "algoritmos": 4973,
      "Especial": 4974,
      "saudavel": 4975,
      "cientí": 4976,
      "Descartes": 4977,
      "redox": 4978,
      "Escravidao": 4979,
      "Aristóteles": 4980,
      "Lim": 4981,
      "Wi": 4982,
      "dre": 4983,
      "ressão": 4984,
      "Exerci": 4985,
      "1991": 4986,
      "1960": 4987,
      "xí": 4988,
      "substitui": 4989,
      "deral": 4990,
      "Federal": 4991,
      "23": 4992,
      "2x": 4993,
      "93": 4994,
      "AV": 4995,
      "ADN": 4996,
      "BT": 4997,
      "Centro": 4998,
      "CRA": 4999,
      "DL": 5000,
      "Era": 5001,
      "Geno": 5002,
      "Hos": 5003,
      "Jar": 5004,
      "Jef": 5005,
      "Lat": 5006,
      "Luiz": 5007,
      "Maria": 5008,
      "Pita": 5009,
      "Usado": 5010,
      "V8": 5011,
      "VM": 5012,
      "bm": 5013,
      "bum": 5014,
      "bele": 5015,
      "bet": 5016,
      "dí": 5017,
      "ei": 5018,
      "eira": 5019,
      "eólica": 5020,
      "flix": 5021,
      "gê": 5022,
      "gnos": 5023,
      "gás": 5024,
      "ice": 5025,
      "idratos": 5026,
      "jor": 5027,
      "jos": 5028,
      "ltos": 5029,
      "misso": 5030,
      "mist": 5031,
      "nidade": 5032,
      "pH": 5033,
      "psi": 5034,
      "pam": 5035,
      "sui": 5036,
      "sho": 5037,
      "salada": 5038,
      "tismo": 5039,
      "tbm": 5040,
      "uda": 5041,
      "using": 5042,
      "vando": 5043,
      "çado": 5044,
      "éticos": 5045,
      "êmica": 5046,
      "ín": 5047,
      "ículos": 5048,
      "devo": 5049,
      "dela": 5050,
      "radi": 5051,
      "core": 5052,
      "telas": 5053,
      "tecnicas": 5054,
      "refor": 5055,
      "medico": 5056,
      "mando": 5057,
      "make": 5058,
      "doida": 5059,
      "tali": 5060,
      "tane": 5061,
      "cana": 5062,
      "camento": 5063,
      "iso": 5064,
      "erre": 5065,
      "quest": 5066,
      "ron": 5067,
      "encar": 5068,
      "então": 5069,
      "tif": 5070,
      "tiça": 5071,
      "tidão": 5072,
      "tiplas": 5073,
      "some": 5074,
      "solidos": 5075,
      "vapor": 5076,
      "vatura": 5077,
      "stress": 5078,
      "pones": 5079,
      "nois": 5080,
      "preserva": 5081,
      "lome": 5082,
      "see": 5083,
      "componentes": 5084,
      "complicado": 5085,
      "conto": 5086,
      "conne": 5087,
      "exa": 5088,
      "namo": 5089,
      "tures": 5090,
      "dicao": 5091,
      "imperio": 5092,
      "prove": 5093,
      "Queda": 5094,
      "veja": 5095,
      "lice": 5096,
      "ligar": 5097,
      "levar": 5098,
      "sertane": 5099,
      "graficos": 5100,
      "persegui": 5101,
      "seno": 5102,
      "entendi": 5103,
      "Bol": 5104,
      "ything": 5105,
      "ped": 5106,
      "pede": 5107,
      "diabetes": 5108,
      "fol": 5109,
      "foque": 5110,
      "japones": 5111,
      "inteiro": 5112,
      "Nazi": 5113,
      "massi": 5114,
      "paco": 5115,
      "minerais": 5116,
      "lini": 5117,
      "ouvido": 5118,
      "iniciantes": 5119,
      "tentou": 5120,
      "cinética": 5121,
      "galá": 5122,
      "chemi": 5123,
      "terra": 5124,
      "suor": 5125,
      "sure": 5126,
      "corda": 5127,
      "nucle": 5128,
      "documentos": 5129,
      "curto": 5130,
      "mulas": 5131,
      "Divide": 5132,
      "saudá": 5133,
      "this": 5134,
      "apps": 5135,
      "Energ": 5136,
      "defen": 5137,
      "pression": 5138,
      "Eucli": 5139,
      "queria": 5140,
      "183": 5141,
      "abor": 5142,
      "obras": 5143,
      "autor": 5144,
      "eram": 5145,
      "diversas": 5146,
      "vent": 5147,
      "sorte": 5148,
      "artístico": 5149,
      "Deseja": 5150,
      "cules": 5151,
      "Ins": 5152,
      "morrer": 5153,
      "morreu": 5154,
      "150": 5155,
      "nutrição": 5156,
      "Cores": 5157,
      "leste": 5158,
      "gências": 5159,
      "computam": 5160,
      "cry": 5161,
      "Food": 5162,
      "Roda": 5163,
      "posicoes": 5164,
      "priva": 5165,
      "cír": 5166,
      "processados": 5167,
      "inflação": 5168,
      "ponto": 5169,
      "espacial": 5170,
      "espacamento": 5171,
      "universal": 5172,
      "but": 5173,
      "Comun": 5174,
      "brasileiros": 5175,
      "generativa": 5176,
      "baseada": 5177,
      "gerou": 5178,
      "estilos": 5179,
      "controlar": 5180,
      "órbita": 5181,
      "crates": 5182,
      "passagem": 5183,
      "regiões": 5184,
      "compreender": 5185,
      "descanso": 5186,
      "Homem": 5187,
      "endário": 5188,
      "álgebra": 5189,
      "nervos": 5190,
      "america": 5191,
      "carboidratos": 5192,
      "átomo": 5193,
      "rótulo": 5194,
      "navegacao": 5195,
      "expressa": 5196,
      "expressar": 5197,
      "memories": 5198,
      "colega": 5199,
      "recicla": 5200,
      "selecao": 5201,
      "especialmente": 5202,
      "português": 5203,
      "Luís": 5204,
      "Transfor": 5205,
      "gripe": 5206,
      "circun": 5207,
      "sobrevivência": 5208,
      "escrav": 5209,
      "acessar": 5210,
      "geracao": 5211,
      "XVI": 5212,
      "XVII": 5213,
      "rebel": 5214,
      "rebral": 5215,
      "Collor": 5216,
      "transmitida": 5217,
      "vacinação": 5218,
      "dançante": 5219,
      "respire": 5220,
      "gravedad": 5221,
      "necessaria": 5222,
      "Alimentação": 5223,
      "aproximadamente": 5224,
      "continuar": 5225,
      "ontem": 5226,
      "proclamou": 5227,
      "ficção": 5228,
      "coordenadas": 5229,
      "containers": 5230,
      "amplificam": 5231,
      "frango": 5232,
      "smartphon": 5233,
      "alerta": 5234,
      "expressões": 5235,
      "sonido": 5236,
      "elogio": 5237,
      "orgânica": 5238,
      "Multiplas": 5239,
      "aceitou": 5240,
      "AVC": 5241,
      "Jarvis": 5242,
      "Jefferson": 5243,
      "Latina": 5244,
      "Pitagoras": 5245,
      "misté": 5246,
      "japonesa": 5247,
      "chemical": 5248,
      "saudáveis": 5249,
      "Euclides": 5250,
      "Lo": 5251,
      "emis": 5252,
      "ouça": 5253,
      "cordo": 5254,
      "ports": 5255,
      "derre": 5256,
      "algumas": 5257,
      "engine": 5258,
      "Ber": 5259,
      "ensino": 5260,
      "infraestrutura": 5261,
      "79": 5262,
      "BA": 5263,
      "Be": 5264,
      "CNN": 5265,
      "Evi": 5266,
      "Ecos": 5267,
      "Hit": 5268,
      "Média": 5269,
      "RT": 5270,
      "Sing": 5271,
      "Text": 5272,
      "bul": 5273,
      "clou": 5274,
      "dal": 5275,
      "gando": 5276,
      "ian": 5277,
      "kup": 5278,
      "põ": 5279,
      "pun": 5280,
      "run": 5281,
      "ótica": 5282,
      "desab": 5283,
      "dedica": 5284,
      "ragem": 5285,
      "col": 5286,
      "cores": 5287,
      "regra": 5288,
      "read": 5289,
      "mata": 5290,
      "most": 5291,
      "don": 5292,
      "toni": 5293,
      "inje": 5294,
      "aste": 5295,
      "ascimento": 5296,
      "tifica": 5297,
      "sobe": 5298,
      "sofrimento": 5299,
      "day": 5300,
      "Coragem": 5301,
      "boni": 5302,
      "civiliza": 5303,
      "criam": 5304,
      "previ": 5305,
      "separa": 5306,
      "compostos": 5307,
      "resgate": 5308,
      "melhores": 5309,
      "bomba": 5310,
      "librar": 5311,
      "grafa": 5312,
      "perText": 5313,
      "dorme": 5314,
      "entende": 5315,
      "viral": 5316,
      "forest": 5317,
      "pace": 5318,
      "cansa": 5319,
      "Declar": 5320,
      "manu": 5321,
      "hormônios": 5322,
      "new": 5323,
      "terna": 5324,
      "pré": 5325,
      "valia": 5326,
      "mossomos": 5327,
      "irri": 5328,
      "rosso": 5329,
      "nial": 5330,
      "trein": 5331,
      "filho": 5332,
      "linear": 5333,
      "metas": 5334,
      "autori": 5335,
      "areas": 5336,
      "Prote": 5337,
      "Supervisionado": 5338,
      "atô": 5339,
      "tários": 5340,
      "colap": 5341,
      "izacao": 5342,
      "supervisionado": 5343,
      "salvar": 5344,
      "gêneros": 5345,
      "droga": 5346,
      "brica": 5347,
      "aceita": 5348,
      "gerir": 5349,
      "Markup": 5350,
      "condicao": 5351,
      "neurologia": 5352,
      "Fundamento": 5353,
      "objeto": 5354,
      "prótons": 5355,
      "Niveis": 5356,
      "baleias": 5357,
      "drama": 5358,
      "Preocupa": 5359,
      "aconteceu": 5360,
      "croservicos": 5361,
      "corrente": 5362,
      "rói": 5363,
      "grandes": 5364,
      "pequeno": 5365,
      "destino": 5366,
      "julgamento": 5367,
      "eficiente": 5368,
      "funcionar": 5369,
      "hacking": 5370,
      "consumo": 5371,
      "básica": 5372,
      "libertador": 5373,
      "criptografa": 5374,
      "corrup": 5375,
      "corrupção": 5376,
      "buracos": 5377,
      "populacoes": 5378,
      "explor": 5379,
      "burro": 5380,
      "acumulada": 5381,
      "bacterias": 5382,
      "fraqueza": 5383,
      "arranja": 5384,
      "afasta": 5385,
      "alegria": 5386,
      "benefício": 5387,
      "Direitos": 5388,
      "HyperText": 5389,
      "constroem": 5390,
      "disponível": 5391,
      "Morte": 5392,
      "Exercicio": 5393,
      "Hitler": 5394,
      "desaba": 5395,
      "pado": 5396,
      "comum": 5397,
      "trações": 5398,
      "distrações": 5399,
      "deixe": 5400,
      "Vol": 5401,
      "dispositivos": 5402,
      "!\"": 5403,
      "2a": 5404,
      "Afe": 5405,
      "Aten": 5406,
      "Bh": 5407,
      "Cha": 5408,
      "DS": 5409,
      "França": 5410,
      "IL": 5411,
      "IN": 5412,
      "Jus": 5413,
      "Lacte": 5414,
      "Mara": 5415,
      "MIL": 5416,
      "Over": 5417,
      "PAs": 5418,
      "Só": 5419,
      "Sur": 5420,
      "Tel": 5421,
      "Tub": 5422,
      "Ueber": 5423,
      "Ví": 5424,
      "Vir": 5425,
      "VID": 5426,
      "ajusta": 5427,
      "africa": 5428,
      "atitude": 5429,
      "acompan": 5430,
      "bn": 5431,
      "bor": 5432,
      "cо": 5433,
      "cue": 5434,
      "ctar": 5435,
      "cnica": 5436,
      "evita": 5437,
      "festa": 5438,
      "hue": 5439,
      "icao": 5440,
      "kno": 5441,
      "licos": 5442,
      "micos": 5443,
      "nce": 5444,
      "oz": 5445,
      "otar": 5446,
      "oferece": 5447,
      "photosynthesis": 5448,
      "sha": 5449,
      "script": 5450,
      "tho": 5451,
      "years": 5452,
      "íp": 5453,
      "íntes": 5454,
      "ói": 5455,
      "ôni": 5456,
      "ústria": 5457,
      "dente": 5458,
      "raio": 5459,
      "costa": 5460,
      "tende": 5461,
      "tencia": 5462,
      "orig": 5463,
      "ret": 5464,
      "requer": 5465,
      "república": 5466,
      "mecânica": 5467,
      "may": 5468,
      "mada": 5469,
      "matar": 5470,
      "motor": 5471,
      "doente": 5472,
      "inesa": 5473,
      "cerebral": 5474,
      "empo": 5475,
      "cai": 5476,
      "cali": 5477,
      "casos": 5478,
      "ish": 5479,
      "erto": 5480,
      "alguns": 5481,
      "asso": 5482,
      "assiste": 5483,
      "rotina": 5484,
      "rotulo": 5485,
      "endor": 5486,
      "envi": 5487,
      "envia": 5488,
      "enfer": 5489,
      "ents": 5490,
      "tirando": 5491,
      "tiempo": 5492,
      "sour": 5493,
      "data": 5494,
      "esidade": 5495,
      "elha": 5496,
      "sili": 5497,
      "sair": 5498,
      "boca": 5499,
      "cito": 5500,
      "city": 5501,
      "ciclo": 5502,
      "pou": 5503,
      "pora": 5504,
      "ponde": 5505,
      "pontes": 5506,
      "povos": 5507,
      "non": 5508,
      "nota": 5509,
      "pregui": 5510,
      "predios": 5511,
      "lones": 5512,
      "sequência": 5513,
      "compr": 5514,
      "conven": 5515,
      "Todos": 5516,
      "extra": 5517,
      "nagens": 5518,
      "dicular": 5519,
      "caralho": 5520,
      "cardía": 5521,
      "cardiologia": 5522,
      "procure": 5523,
      "late": 5524,
      "porra": 5525,
      "bases": 5526,
      "lias": 5527,
      "pers": 5528,
      "Porém": 5529,
      "doria": 5530,
      "rania": 5531,
      "vira": 5532,
      "video": 5533,
      "acro": 5534,
      "sincro": 5535,
      "fiel": 5536,
      "ficios": 5537,
      "pedia": 5538,
      "maraca": 5539,
      "marcado": 5540,
      "harmon": 5541,
      "jour": 5542,
      "joga": 5543,
      "casso": 5544,
      "programas": 5545,
      "criaram": 5546,
      "paciencia": 5547,
      "pense": 5548,
      "pendicular": 5549,
      "linda": 5550,
      "montan": 5551,
      "quântica": 5552,
      "ouve": 5553,
      "gação": 5554,
      "manipu": 5555,
      "horiz": 5556,
      "desconhecidos": 5557,
      "torios": 5558,
      "tivamente": 5559,
      "gicas": 5560,
      "termos": 5561,
      "terremotos": 5562,
      "ternidade": 5563,
      "poluição": 5564,
      "internacional": 5565,
      "nuvem": 5566,
      "escolhas": 5567,
      "curso": 5568,
      "garantir": 5569,
      "mosq": 5570,
      "tribu": 5571,
      "avô": 5572,
      "Eixo": 5573,
      "turismo": 5574,
      "Solu": 5575,
      "Engen": 5576,
      "placas": 5577,
      "organismo": 5578,
      "organização": 5579,
      "Letras": 5580,
      "talvez": 5581,
      "green": 5582,
      "greja": 5583,
      "presta": 5584,
      "pressure": 5585,
      "comunismo": 5586,
      "ajudá": 5587,
      "chegou": 5588,
      "auten": 5589,
      "estabele": 5590,
      "Pontes": 5591,
      "calcula": 5592,
      "vens": 5593,
      "energética": 5594,
      "melhoram": 5595,
      "Assincro": 5596,
      "sonho": 5597,
      "cafeina": 5598,
      "tentando": 5599,
      "transpar": 5600,
      "fundamento": 5601,
      "Funcoes": 5602,
      "virtual": 5603,
      "lhoso": 5604,
      "hipo": 5605,
      "cionismo": 5606,
      "askara": 5607,
      "reação": 5608,
      "positores": 5609,
      "prias": 5610,
      "America": 5611,
      "1930": 5612,
      "influe": 5613,
      "stars": 5614,
      "culturais": 5615,
      "aceitar": 5616,
      "informacoes": 5617,
      "bulos": 5618,
      "bugs": 5619,
      "antiguidade": 5620,
      "Compu": 5621,
      "Comunidade": 5622,
      "doencas": 5623,
      "computação": 5624,
      "computacional": 5625,
      "surdo": 5626,
      "pesado": 5627,
      "públicas": 5628,
      "frontend": 5629,
      "frevo": 5630,
      "weather": 5631,
      "lembro": 5632,
      "atoms": 5633,
      "químicas": 5634,
      "próxima": 5635,
      "próprias": 5636,
      "soluções": 5637,
      "Empregos": 5638,
      "agro": 5639,
      "Paraguai": 5640,
      "autonomos": 5641,
      "sobreviver": 5642,
      "cromossomos": 5643,
      "origens": 5644,
      "divide": 5645,
      "multiplica": 5646,
      "interface": 5647,
      "elétrica": 5648,
      "elétrons": 5649,
      "váveis": 5650,
      "fissão": 5651,
      "reduzir": 5652,
      "ecossistema": 5653,
      "aquela": 5654,
      "pequenos": 5655,
      "PyGame": 5656,
      "determinado": 5657,
      "evoluiu": 5658,
      "electrons": 5659,
      "campo": 5660,
      "millones": 5661,
      "Pará": 5662,
      "características": 5663,
      "aguento": 5664,
      "recicl": 5665,
      "incríveis": 5666,
      "proprios": 5667,
      "representam": 5668,
      "vulc": 5669,
      "vitaminas": 5670,
      "Auto": 5671,
      "rapidamente": 5672,
      "inclin": 5673,
      "projetam": 5674,
      "descrevem": 5675,
      "Microservicos": 5676,
      "destrutivo": 5677,
      "prevencao": 5678,
      "gorduras": 5679,
      "Tenho": 5680,
      "fotosíntes": 5681,
      "renováveis": 5682,
      "COVID": 5683,
      "efeitos": 5684,
      "brigadão": 5685,
      "refle": 5686,
      "Ideal": 5687,
      "Ideais": 5688,
      "branco": 5689,
      "externa": 5690,
      "edificios": 5691,
      "evitar": 5692,
      "colonial": 5693,
      "ritmo": 5694,
      "ritmos": 5695,
      "usuário": 5696,
      "propriedades": 5697,
      "Robespi": 5698,
      "conceitos": 5699,
      "Leibn": 5700,
      "industrialização": 5701,
      "armazenamento": 5702,
      "Terror": 5703,
      "XIX": 5704,
      "Derivada": 5705,
      "negros": 5706,
      "observavel": 5707,
      "democracia": 5708,
      "emergência": 5709,
      "traducao": 5710,
      "eletrônica": 5711,
      "Cruz": 5712,
      "cycle": 5713,
      "combater": 5714,
      "estatística": 5715,
      "Liderada": 5716,
      "orientada": 5717,
      "identidade": 5718,
      "recuperar": 5719,
      "simular": 5720,
      "Visao": 5721,
      "ortopedia": 5722,
      "altera": 5723,
      "señales": 5724,
      "amigavel": 5725,
      "Facil": 5726,
      "Diagnos": 5727,
      "mensch": 5728,
      "bactérias": 5729,
      "ósofos": 5730,
      "almoçou": 5731,
      "Recife": 5732,
      "Netflix": 5733,
      "Especialidades": 5734,
      "Limite": 5735,
      "bumba": 5736,
      "radianos": 5737,
      "reforcо": 5738,
      "encare": 5739,
      "lesterol": 5740,
      "círculo": 5741,
      "Transformer": 5742,
      "escravizados": 5743,
      "Bhaskara": 5744,
      "Lactea": 5745,
      "Sócrates": 5746,
      "Uebermensch": 5747,
      "ozônio": 5748,
      "otario": 5749,
      "comprar": 5750,
      "maracatu": 5751,
      "Engenheiros": 5752,
      "Assincrona": 5753,
      "influencia": 5754,
      "fotosíntesis": 5755,
      "Robespierre": 5756,
      "Leibniz": 5757,
      "Diagnostico": 5758,
      "5G": 5759,
      "VPN": 5760,
      "apar": 5761,
      "fissi": 5762,
      "foto": 5763,
      "empresa": 5764,
      "responde": 5765,
      "Profissi": 5766,
      "convertem": 5767,
      "desmatamento": 5768,
      "Profissionais": 5769,
      "hada": 5770,
      "caminhada": 5771,
      "suspe": 5772,
      "perguntas": 5773,
      "+).": 5774,
      "2o": 5775,
      "75": 5776,
      "Aler": 5777,
      "Ef": 5778,
      "Fam": 5779,
      "Gr": 5780,
      "Hor": 5781,
      "LST": 5782,
      "Mú": 5783,
      "PS": 5784,
      "Pen": 5785,
      "Piada": 5786,
      "RNN": 5787,
      "She": 5788,
      "SVM": 5789,
      "ade": 5790,
      "avalia": 5791,
      "dismo": 5792,
      "ios": 5793,
      "igu": 5794,
      "mp": 5795,
      "mpa": 5796,
      "ocul": 5797,
      "oks": 5798,
      "omios": 5799,
      "piro": 5800,
      "wser": 5801,
      "ye": 5802,
      "zo": 5803,
      "árias": 5804,
      "écia": 5805,
      "devido": 5806,
      "rain": 5807,
      "cool": 5808,
      "tele": 5809,
      "reconhecer": 5810,
      "remedio": 5811,
      "mol": 5812,
      "dopam": 5813,
      "tadas": 5814,
      "inson": 5815,
      "cele": 5816,
      "cabeca": 5817,
      "ticidade": 5818,
      "ricas": 5819,
      "ricos": 5820,
      "home": 5821,
      "sai": 5822,
      "cipl": 5823,
      "crimin": 5824,
      "nológico": 5825,
      "preto": 5826,
      "separ": 5827,
      "compri": 5828,
      "confor": 5829,
      "conserva": 5830,
      "extensão": 5831,
      "props": 5832,
      "porta": 5833,
      "face": 5834,
      "ntese": 5835,
      "antecipa": 5836,
      "sencia": 5837,
      "pesos": 5838,
      "simbolos": 5839,
      "force": 5840,
      "constrói": 5841,
      "Redu": 5842,
      "iosa": 5843,
      "minhas": 5844,
      "milh": 5845,
      "isteza": 5846,
      "relacoes": 5847,
      "inicio": 5848,
      "HTML5": 5849,
      "tento": 5850,
      "trocar": 5851,
      "pris": 5852,
      "formam": 5853,
      "munológico": 5854,
      "paragrafos": 5855,
      "princípios": 5856,
      "teses": 5857,
      "fraternidade": 5858,
      "começar": 5859,
      "profes": 5860,
      "SSR": 5861,
      "histó": 5862,
      "geno": 5863,
      "defender": 5864,
      "criação": 5865,
      "abra": 5866,
      "abri": 5867,
      "ausencia": 5868,
      "Conversa": 5869,
      "venção": 5870,
      "sonha": 5871,
      "transmis": 5872,
      "culpa": 5873,
      "realmente": 5874,
      "HTTPS": 5875,
      "hiper": 5876,
      "métricas": 5877,
      "anguí": 5878,
      "Aprende": 5879,
      "useSta": 5880,
      "useEf": 5881,
      "reativos": 5882,
      "universidades": 5883,
      "bandido": 5884,
      "obriga": 5885,
      "descober": 5886,
      "atomos": 5887,
      "químico": 5888,
      "Hoje": 5889,
      "Hooks": 5890,
      "JSX": 5891,
      "titulos": 5892,
      "lugares": 5893,
      "célula": 5894,
      "PyTor": 5895,
      "Transtorno": 5896,
      "síntese": 5897,
      "GPU": 5898,
      "mudança": 5899,
      "mudanca": 5900,
      "automacao": 5901,
      "interpretam": 5902,
      "politico": 5903,
      "digestão": 5904,
      "atingir": 5905,
      "tônomos": 5906,
      "investimento": 5907,
      "entropia": 5908,
      "versatil": 5909,
      "semantico": 5910,
      "músculos": 5911,
      "buraco": 5912,
      "Define": 5913,
      "destruição": 5914,
      "gravitacional": 5915,
      "paralisa": 5916,
      "polinomios": 5917,
      "rizam": 5918,
      "Equacoes": 5919,
      "Renascimento": 5920,
      "renderizam": 5921,
      "revela": 5922,
      "Router": 5923,
      "Tristeza": 5924,
      "restrições": 5925,
      "hábito": 5926,
      "desequi": 5927,
      "Moderna": 5928,
      "BERT": 5929,
      "Browser": 5930,
      "CAPS": 5931,
      "deveria": 5932,
      "fortalece": 5933,
      "chuva": 5934,
      "Bolsa": 5935,
      "pacotes": 5936,
      "Evite": 5937,
      "Ecossistema": 5938,
      "põe": 5939,
      "runtime": 5940,
      "injection": 5941,
      "library": 5942,
      "Protege": 5943,
      "explorar": 5944,
      "Transformers": 5945,
      "Alerta": 5946,
      "Família": 5947,
      "Grécia": 5948,
      "LSTM": 5949,
      "Sheets": 5950,
      "insonia": 5951,
      "Redux": 5952,
      "transmissores": 5953,
      "useState": 5954,
      "useEffect": 5955,
      "PyTorch": 5956,
      "Browsers": 5957,
      "fing": 5958,
      "tique": 5959,
      "quências": 5960,
      "sup": 5961,
      "trabalhe": 5962,
      "captam": 5963,
      "roubar": 5964,
      "PA": 5965,
      "oculos": 5966,
      "quantos": 5967,
      "FA": 5968,
      "Am": 5969,
      "\",": 5970,
      "2D": 5971,
      "2O": 5972,
      "48": 5973,
      "49": 5974,
      "AS": 5975,
      "Bos": 5976,
      "Brasile": 5977,
      "Có": 5978,
      "Char": 5979,
      "CBT": 5980,
      "Durante": 5981,
      "Evolui": 5982,
      "FI": 5983,
      "Far": 5984,
      "Flow": 5985,
      "Faci": 5986,
      "H2O": 5987,
      "IS": 5988,
      "IV": 5989,
      "Ipi": 5990,
      "Ital": 5991,
      "Itá": 5992,
      "Ilum": 5993,
      "IMC": 5994,
      "Igreja": 5995,
      "Japa": 5996,
      "Lis": 5997,
      "Mé": 5998,
      "Macha": 5999,
      "Pin": 6000,
      "Rando": 6001,
      "SE": 6002,
      "Si": 6003,
      "Sinta": 6004,
      "UK": 6005,
      "UX": 6006,
      "What": 6007,
      "atempo": 6008,
      "apeti": 6009,
      "amanhã": 6010,
      "bang": 6011,
      "cá": 6012,
      "cts": 6013,
      "dan": 6014,
      "eva": 6015,
      "eter": 6016,
      "even": 6017,
      "etico": 6018,
      "fem": 6019,
      "fen": 6020,
      "fuer": 6021,
      "fly": 6022,
      "gante": 6023,
      "hé": 6024,
      "ic": 6025,
      "jas": 6026,
      "jum": 6027,
      "ki": 6028,
      "key": 6029,
      "ngu": 6030,
      "oso": 6031,
      "ose": 6032,
      "oplanetas": 6033,
      "pum": 6034,
      "pio": 6035,
      "rônios": 6036,
      "sang": 6037,
      "sustenta": 6038,
      "sanguí": 6039,
      "tista": 6040,
      "tistas": 6041,
      "uais": 6042,
      "vó": 6043,
      "wing": 6044,
      "waves": 6045,
      "waste": 6046,
      "xão": 6047,
      "ya": 6048,
      "Ín": 6049,
      "én": 6050,
      "éns": 6051,
      "éticas": 6052,
      "ído": 6053,
      "cologia": 6054,
      "tente": 6055,
      "tecido": 6056,
      "orbita": 6057,
      "reco": 6058,
      "repri": 6059,
      "reconhecimento": 6060,
      "retina": 6061,
      "resolução": 6062,
      "mere": 6063,
      "mae": 6064,
      "maquinas": 6065,
      "momento": 6066,
      "doso": 6067,
      "docker": 6068,
      "tano": 6069,
      "taqui": 6070,
      "tomou": 6071,
      "inpu": 6072,
      "inmunológico": 6073,
      "case": 6074,
      "isms": 6075,
      "errando": 6076,
      "alon": 6077,
      "alterna": 6078,
      "astero": 6079,
      "enen": 6080,
      "tilha": 6081,
      "tienen": 6082,
      "anta": 6083,
      "anja": 6084,
      "antos": 6085,
      "solo": 6086,
      "socor": 6087,
      "sofre": 6088,
      "sonagens": 6089,
      "riores": 6090,
      "dail": 6091,
      "elho": 6092,
      "house": 6093,
      "umas": 6094,
      "plen": 6095,
      "sil": 6096,
      "sional": 6097,
      "saindo": 6098,
      "saté": 6099,
      "bodi": 6100,
      "cidio": 6101,
      "cient": 6102,
      "civil": 6103,
      "podia": 6104,
      "crianças": 6105,
      "good": 6106,
      "prepare": 6107,
      "preferências": 6108,
      "Mecanica": 6109,
      "lhado": 6110,
      "unas": 6111,
      "consel": 6112,
      "concurso": 6113,
      "brea": 6114,
      "tarismo": 6115,
      "difi": 6116,
      "cardia": 6117,
      "carne": 6118,
      "impression": 6119,
      "prog": 6120,
      "provar": 6121,
      "hacen": 6122,
      "verde": 6123,
      "faculdade": 6124,
      "vemos": 6125,
      "lido": 6126,
      "liter": 6127,
      "ligado": 6128,
      "lites": 6129,
      "legu": 6130,
      "perpendicular": 6131,
      "personagens": 6132,
      "explici": 6133,
      "Porto": 6134,
      "sentador": 6135,
      "paras": 6136,
      "partí": 6137,
      "ranga": 6138,
      "tornar": 6139,
      "viver": 6140,
      "ack": 6141,
      "ones": 6142,
      "fice": 6143,
      "pedi": 6144,
      "peix": 6145,
      "feel": 6146,
      "margens": 6147,
      "forço": 6148,
      "focar": 6149,
      "jazz": 6150,
      "joelho": 6151,
      "Regi": 6152,
      "Resol": 6153,
      "pape": 6154,
      "patter": 6155,
      "canas": 6156,
      "nometria": 6157,
      "mien": 6158,
      "mila": 6159,
      "migra": 6160,
      "desenvolve": 6161,
      "contag": 6162,
      "desanimado": 6163,
      "desloca": 6164,
      "fale": 6165,
      "pirar": 6166,
      "bió": 6167,
      "meditação": 6168,
      "usao": 6169,
      "usadas": 6170,
      "ralmente": 6171,
      "indústria": 6172,
      "plants": 6173,
      "paradig": 6174,
      "faster": 6175,
      "diretamente": 6176,
      "planet": 6177,
      "ctivas": 6178,
      "get": 6179,
      "turno": 6180,
      "Solar": 6181,
      "Bastilha": 6182,
      "called": 6183,
      "Endy": 6184,
      "profissionais": 6185,
      "grega": 6186,
      "1950": 6187,
      "trân": 6188,
      "disper": 6189,
      "disposição": 6190,
      "discipl": 6191,
      "Expan": 6192,
      "obesidade": 6193,
      "autônomos": 6194,
      "DOM": 6195,
      "nossas": 6196,
      "Conta": 6197,
      "losó": 6198,
      "dioxi": 6199,
      "vende": 6200,
      "sorFlow": 6201,
      "Anali": 6202,
      "Antoni": 6203,
      "bioma": 6204,
      "bioticos": 6205,
      "ecológica": 6206,
      "Segu": 6207,
      "produto": 6208,
      "produces": 6209,
      "Quantos": 6210,
      "atendimento": 6211,
      "seguro": 6212,
      "Está": 6213,
      "alimento": 6214,
      "beat": 6215,
      "visível": 6216,
      "bacia": 6217,
      "nutriente": 6218,
      "nutrients": 6219,
      "lhotin": 6220,
      "cren": 6221,
      "variacao": 6222,
      "ES6": 6223,
      "uniu": 6224,
      "Criado": 6225,
      "Treino": 6226,
      "mética": 6227,
      "istindo": 6228,
      "Livia": 6229,
      "valorize": 6230,
      "tér": 6231,
      "técnica": 6232,
      "crescer": 6233,
      "limita": 6234,
      "fuja": 6235,
      "proteja": 6236,
      "resolva": 6237,
      "lóbulos": 6238,
      "norte": 6239,
      "influ": 6240,
      "influen": 6241,
      "stron": 6242,
      "ponha": 6243,
      "cosmos": 6244,
      "information": 6245,
      "están": 6246,
      "cós": 6247,
      "antibioticos": 6248,
      "igno": 6249,
      "recei": 6250,
      "recept": 6251,
      "guilhotin": 6252,
      "céu": 6253,
      "baseadas": 6254,
      "Eletrica": 6255,
      "somware": 6256,
      "condição": 6257,
      "neuronio": 6258,
      "convert": 6259,
      "Novo": 6260,
      "violeta": 6261,
      "pandas": 6262,
      "Celu": 6263,
      "finanças": 6264,
      "processador": 6265,
      "subconjunto": 6266,
      "interage": 6267,
      "descansando": 6268,
      "pés": 6269,
      "políticas": 6270,
      "oxidação": 6271,
      "objetivos": 6272,
      "suspense": 6273,
      "experiências": 6274,
      "Filósofos": 6275,
      "necessidades": 6276,
      "carbon": 6277,
      "máquina": 6278,
      "europe": 6279,
      "apoia": 6280,
      "decisao": 6281,
      "determinante": 6282,
      "exercícios": 6283,
      "fruta": 6284,
      "humanas": 6285,
      "barro": 6286,
      "today": 6287,
      "transporta": 6288,
      "memorias": 6289,
      "molecules": 6290,
      "acima": 6291,
      "combate": 6292,
      "ground": 6293,
      "clássica": 6294,
      "guarde": 6295,
      "promove": 6296,
      "famílias": 6297,
      "hidrogenio": 6298,
      "adaptacao": 6299,
      "barata": 6300,
      "egíp": 6301,
      "seguir": 6302,
      "escravatura": 6303,
      "prevenção": 6304,
      "Neurotransmissores": 6305,
      "executa": 6306,
      "inteligentes": 6307,
      "opiniões": 6308,
      "TensorFlow": 6309,
      "1980": 6310,
      "definidos": 6311,
      "Integrais": 6312,
      "genuino": 6313,
      "genuína": 6314,
      "conviva": 6315,
      "farmacologia": 6316,
      "while": 6317,
      "tecnologias": 6318,
      "hout": 6319,
      "previsao": 6320,
      "permitindo": 6321,
      "tradição": 6322,
      "comunicar": 6323,
      "assuntos": 6324,
      "termodinâmica": 6325,
      "tização": 6326,
      "habilidades": 6327,
      "Interpre": 6328,
      "religiao": 6329,
      "psicológico": 6330,
      "tize": 6331,
      "próprio": 6332,
      "portuguesa": 6333,
      "olhos": 6334,
      "concentracao": 6335,
      "elétricos": 6336,
      "XIV": 6337,
      "protoco": 6338,
      "infinitas": 6339,
      "infinitesi": 6340,
      "desafie": 6341,
      "Derivadas": 6342,
      "dissol": 6343,
      "nariz": 6344,
      "electrical": 6345,
      "palavras": 6346,
      "satisfação": 6347,
      "sequencias": 6348,
      "magnetic": 6349,
      "situações": 6350,
      "Conhecido": 6351,
      "Assis": 6352,
      "nervoso": 6353,
      "necesitamos": 6354,
      "econômico": 6355,
      "pping": 6356,
      "otimizacao": 6357,
      "descobriu": 6358,
      "Gilberto": 6359,
      "amazing": 6360,
      "compromisso": 6361,
      "travels": 6362,
      "substância": 6363,
      "Pandas": 6364,
      "driven": 6365,
      "estraté": 6366,
      "trigonometria": 6367,
      "transição": 6368,
      "YouTub": 6369,
      "gluco": 6370,
      "zinhe": 6371,
      "tabelas": 6372,
      "resistencia": 6373,
      "resultado": 6374,
      "aritmética": 6375,
      "câncer": 6376,
      "religião": 6377,
      "congel": 6378,
      "conservacao": 6379,
      "differe": 6380,
      "perspectivas": 6381,
      "sintese": 6382,
      "reproducao": 6383,
      "científica": 6384,
      "Genocidio": 6385,
      "Hospitais": 6386,
      "namorado": 6387,
      "mistério": 6388,
      "Declaracao": 6389,
      "corrupcao": 6390,
      "Afeta": 6391,
      "Surgiu": 6392,
      "Virtual": 6393,
      "africanos": 6394,
      "acompanha": 6395,
      "know": 6396,
      "ônibus": 6397,
      "tenciação": 6398,
      "retângulo": 6399,
      "caliente": 6400,
      "endorf": 6401,
      "ponderada": 6402,
      "greenhouse": 6403,
      "estabeleceu": 6404,
      "Música": 6405,
      "ocultas": 6406,
      "professor": 6407,
      "Aprendem": 6408,
      "Evoluiu": 6409,
      "Facilita": 6410,
      "Ipiranga": 6411,
      "Italia": 6412,
      "Itália": 6413,
      "Iluminismo": 6414,
      "Japao": 6415,
      "Machado": 6416,
      "Random": 6417,
      "Sintaxe": 6418,
      "atemporal": 6419,
      "sangrias": 6420,
      "taquicardia": 6421,
      "daily": 6422,
      "conselho": 6423,
      "dificuldade": 6424,
      "legumes": 6425,
      "sentadoria": 6426,
      "Regime": 6427,
      "deslocamento": 6428,
      "paradigma": 6429,
      "trânsito": 6430,
      "dioxide": 6431,
      "Analitica": 6432,
      "Antonieta": 6433,
      "guilhotinados": 6434,
      "egípcia": 6435,
      "infinitesimais": 6436,
      "YouTube": 6437,
      "Ou": 6438,
      "narra": 6439,
      "sprint": 6440,
      "éis": 6441,
      "óle": 6442,
      "coin": 6443,
      "tomate": 6444,
      "sea": 6445,
      "legi": 6446,
      "itcoin": 6447,
      "sul": 6448,
      "oth": 6449,
      "expresse": 6450,
      "Criatividade": 6451,
      "extremos": 6452,
      "combustíveis": 6453,
      "Durma": 6454,
      "suspeitos": 6455,
      "óleo": 6456,
      "NE": 6457,
      "entedia": 6458,
      "ingles": 6459,
      "Qualquer": 6460,
      "processar": 6461,
      "China": 6462,
      "entediado": 6463,
      "timento": 6464,
      "substituir": 6465,
      "(-": 6466,
      "24": 6467,
      "Amostra": 6468,
      "Bi": 6469,
      "CL": 6470,
      "Eg": 6471,
      "Ente": 6472,
      "Event": 6473,
      "Lula": 6474,
      "Mal": 6475,
      "Miste": 6476,
      "Nunca": 6477,
      "Opera": 6478,
      "Promo": 6479,
      "Ri": 6480,
      "Rapi": 6481,
      "Sty": 6482,
      "Té": 6483,
      "django": 6484,
      "feu": 6485,
      "flask": 6486,
      "gest": 6487,
      "git": 6488,
      "nó": 6489,
      "nisso": 6490,
      "pur": 6491,
      "ry": 6492,
      "sani": 6493,
      "tun": 6494,
      "uém": 6495,
      "vp": 6496,
      "áticas": 6497,
      "dep": 6498,
      "dece": 6499,
      "degra": 6500,
      "destro": 6501,
      "tect": 6502,
      "meros": 6503,
      "inva": 6504,
      "cendo": 6505,
      "capaz": 6506,
      "cading": 6507,
      "istimos": 6508,
      "querem": 6509,
      "tiv": 6510,
      "ant": 6511,
      "sob": 6512,
      "soli": 6513,
      "dagem": 6514,
      "esquis": 6515,
      "essas": 6516,
      "plos": 6517,
      "bons": 6518,
      "preprocessa": 6519,
      "logos": 6520,
      "ung": 6521,
      "composição": 6522,
      "conde": 6523,
      "menores": 6524,
      "implica": 6525,
      "very": 6526,
      "apresen": 6527,
      "lema": 6528,
      "lares": 6529,
      "viu": 6530,
      "viram": 6531,
      "pegar": 6532,
      "maras": 6533,
      "forca": 6534,
      "forças": 6535,
      "Rece": 6536,
      "cioso": 6537,
      "masti": 6538,
      "traduz": 6539,
      "passe": 6540,
      "passar": 6541,
      "doses": 6542,
      "relacao": 6543,
      "mantém": 6544,
      "horário": 6545,
      "itro": 6546,
      "sabia": 6547,
      "tention": 6548,
      "nera": 6549,
      "nega": 6550,
      "meditacao": 6551,
      "sugerir": 6552,
      "ralismo": 6553,
      "escopios": 6554,
      "trabalhis": 6555,
      "thread": 6556,
      "gerais": 6557,
      "turas": 6558,
      "acaso": 6559,
      "testes": 6560,
      "meworks": 6561,
      "Ensino": 6562,
      "juros": 6563,
      "gnós": 6564,
      "190": 6565,
      "disputa": 6566,
      "ajude": 6567,
      "respondo": 6568,
      "Exoplanetas": 6569,
      "dizem": 6570,
      "numpy": 6571,
      "comunidades": 6572,
      "gasta": 6573,
      "inovação": 6574,
      "ficação": 6575,
      "morre": 6576,
      "blocking": 6577,
      "virtuais": 6578,
      "WebSockets": 6579,
      "variação": 6580,
      "variables": 6581,
      "Correlacao": 6582,
      "clor": 6583,
      "dinamica": 6584,
      "limão": 6585,
      "fudido": 6586,
      "contex": 6587,
      "infla": 6588,
      "consciente": 6589,
      "budismo": 6590,
      "igh": 6591,
      "governa": 6592,
      "contração": 6593,
      "NoSQL": 6594,
      "delgado": 6595,
      "transformacoes": 6596,
      "acontecer": 6597,
      "justo": 6598,
      "Anima": 6599,
      "oceanos": 6600,
      "moleculas": 6601,
      "seleção": 6602,
      "vulnera": 6603,
      "bliotecas": 6604,
      "Fea": 6605,
      "acelerada": 6606,
      "acelerados": 6607,
      "Antiga": 6608,
      "farmacia": 6609,
      "aberto": 6610,
      "ultrapassado": 6611,
      "rouba": 6612,
      "combustível": 6613,
      "riqueza": 6614,
      "específico": 6615,
      "conceito": 6616,
      "registry": 6617,
      "SASS": 6618,
      "escalavel": 6619,
      "magnetica": 6620,
      "esquele": 6621,
      "exploração": 6622,
      "Cascading": 6623,
      "causalidade": 6624,
      "eletromagnetica": 6625,
      "distorcao": 6626,
      "gerenciador": 6627,
      "censura": 6628,
      "LESS": 6629,
      "consultas": 6630,
      "Guido": 6631,
      "RSs": 6632,
      "Frameworks": 6633,
      "repetir": 6634,
      "moeda": 6635,
      "Atomos": 6636,
      "Rossum": 6637,
      "vermelho": 6638,
      "librados": 6639,
      "machucar": 6640,
      "combinam": 6641,
      "Single": 6642,
      "dedicação": 6643,
      "regras": 6644,
      "bonita": 6645,
      "Preocupacao": 6646,
      "criptografado": 6647,
      "Telescopios": 6648,
      "hipoteses": 6649,
      "iguais": 6650,
      "dopamina": 6651,
      "antecipatorio": 6652,
      "desequilibrados": 6653,
      "ISRSs": 6654,
      "inputs": 6655,
      "Expansao": 6656,
      "Interpretada": 6657,
      "Amostragem": 6658,
      "Bibliotecas": 6659,
      "CLT": 6660,
      "Misterios": 6661,
      "Rapido": 6662,
      "Style": 6663,
      "Técnicas": 6664,
      "preprocessadores": 6665,
      "gnóstico": 6666,
      "email": 6667,
      "elan": 6668,
      "preços": 6669,
      "cario": 6670,
      "Pratique": 6671,
      "Esco": 6672,
      "tituição": 6673,
      "hishing": 6674,
      "Pomodoro": 6675,
      "Pergun": 6676,
      "complexa": 6677,
      "bati": 6678,
      "autoestima": 6679,
      "Combina": 6680,
      "xícara": 6681,
      "Dor": 6682,
      "Computa": 6683,
      "Computador": 6684,
      "!!": 6685,
      "40": 6686,
      "Atra": 6687,
      "BP": 6688,
      "Bang": 6689,
      "Beber": 6690,
      "Back": 6691,
      "Bitcoin": 6692,
      "Cab": 6693,
      "Cat": 6694,
      "Certo": 6695,
      "FT": 6696,
      "Fro": 6697,
      "Fel": 6698,
      "He": 6699,
      "Hi": 6700,
      "Hiros": 6701,
      "Henrique": 6702,
      "Io": 6703,
      "Jap": 6704,
      "Mis": 6705,
      "Mart": 6706,
      "Mag": 6707,
      "NA": 6708,
      "Nel": 6709,
      "NFT": 6710,
      "Oce": 6711,
      "Ori": 6712,
      "QI": 6713,
      "Sao": 6714,
      "Scrum": 6715,
      "SPAs": 6716,
      "Thes": 6717,
      "Vinci": 6718,
      "When": 6719,
      "Your": 6720,
      "ativo": 6721,
      "apos": 6722,
      "afro": 6723,
      "años": 6724,
      "bin": 6725,
      "bes": 6726,
      "cú": 6727,
      "claro": 6728,
      "cción": 6729,
      "cciones": 6730,
      "clini": 6731,
      "dream": 6732,
      "eval": 6733,
      "efica": 6734,
      "feno": 6735,
      "floresta": 6736,
      "gá": 6737,
      "gé": 6738,
      "gico": 6739,
      "glico": 6740,
      "glóbulos": 6741,
      "hem": 6742,
      "hal": 6743,
      "ire": 6744,
      "idor": 6745,
      "idas": 6746,
      "ides": 6747,
      "idio": 6748,
      "icismo": 6749,
      "ilegi": 6750,
      "jando": 6751,
      "kes": 6752,
      "lw": 6753,
      "land": 6754,
      "mões": 6755,
      "mãos": 6756,
      "om": 6757,
      "opositores": 6758,
      "pá": 6759,
      "pí": 6760,
      "pis": 6761,
      "pti": 6762,
      "ptografia": 6763,
      "rs": 6764,
      "scrum": 6765,
      "space": 6766,
      "uu": 6767,
      "usou": 6768,
      "ucana": 6769,
      "vão": 6770,
      "wa": 6771,
      "wal": 6772,
      "ward": 6773,
      "xy": 6774,
      "zio": 6775,
      "Único": 6776,
      "ães": 6777,
      "ímos": 6778,
      "ílio": 6779,
      "ômenos": 6780,
      "única": 6781,
      "últi": 6782,
      "arr": 6783,
      "coce": 6784,
      "coun": 6785,
      "colon": 6786,
      "orb": 6787,
      "reac": 6788,
      "repara": 6789,
      "refere": 6790,
      "repeti": 6791,
      "resili": 6792,
      "metodo": 6793,
      "meeting": 6794,
      "meiros": 6795,
      "doce": 6796,
      "toral": 6797,
      "toge": 6798,
      "totali": 6799,
      "int": 6800,
      "cesi": 6801,
      "cente": 6802,
      "emite": 6803,
      "causando": 6804,
      "alem": 6805,
      "alcan": 6806,
      "almoço": 6807,
      "queda": 6808,
      "rodar": 6809,
      "enfrente": 6810,
      "tira": 6811,
      "sound": 6812,
      "riacho": 6813,
      "Volu": 6814,
      "vací": 6815,
      "hot": 6816,
      "sivos": 6817,
      "saco": 6818,
      "saciedade": 6819,
      "civis": 6820,
      "pow": 6821,
      "polos": 6822,
      "poeira": 6823,
      "criando": 6824,
      "not": 6825,
      "preocupa": 6826,
      "presión": 6827,
      "under": 6828,
      "segue": 6829,
      "compara": 6830,
      "combus": 6831,
      "exi": 6832,
      "icoes": 6833,
      "imb": 6834,
      "impul": 6835,
      "provi": 6836,
      "protes": 6837,
      "lava": 6838,
      "labora": 6839,
      "hace": 6840,
      "versao": 6841,
      "jejum": 6842,
      "vejo": 6843,
      "curando": 6844,
      "leal": 6845,
      "graves": 6846,
      "perdeu": 6847,
      "perfeita": 6848,
      "izava": 6849,
      "izou": 6850,
      "range": 6851,
      "ransomware": 6852,
      "torico": 6853,
      "laranja": 6854,
      "vidos": 6855,
      "fazem": 6856,
      "onar": 6857,
      "filosó": 6858,
      "pete": 6859,
      "diais": 6860,
      "aixo": 6861,
      "Naz": 6862,
      "Nagas": 6863,
      "Reforma": 6864,
      "Republica": 6865,
      "Recorrente": 6866,
      "mentam": 6867,
      "mentado": 6868,
      "pain": 6869,
      "paciente": 6870,
      "urras": 6871,
      "traits": 6872,
      "zabumba": 6873,
      "pasa": 6874,
      "passando": 6875,
      "lindo": 6876,
      "miento": 6877,
      "passou": 6878,
      "estética": 6879,
      "relaxa": 6880,
      "relações": 6881,
      "volutional": 6882,
      "desse": 6883,
      "desanima": 6884,
      "iter": 6885,
      "dula": 6886,
      "relaxar": 6887,
      "pir": 6888,
      "pire": 6889,
      "pita": 6890,
      "bios": 6891,
      "medido": 6892,
      "medieval": 6893,
      "chão": 6894,
      "chinesa": 6895,
      "churras": 6896,
      "termica": 6897,
      "terras": 6898,
      "formado": 6899,
      "formada": 6900,
      "formação": 6901,
      "curar": 6902,
      "adver": 6903,
      "odeio": 6904,
      "fascismo": 6905,
      "direção": 6906,
      "rosas": 6907,
      "ganhou": 6908,
      "gerada": 6909,
      "sabedoria": 6910,
      "turar": 6911,
      "fraco": 6912,
      "fração": 6913,
      "guel": 6914,
      "historico": 6915,
      "uxílio": 6916,
      "ninguém": 6917,
      "genes": 6918,
      "derro": 6919,
      "filtra": 6920,
      "filtro": 6921,
      "consolida": 6922,
      "puto": 6923,
      "pular": 6924,
      "optica": 6925,
      "1970": 6926,
      "1922": 6927,
      "arterial": 6928,
      "primeiros": 6929,
      "esperança": 6930,
      "queriam": 6931,
      "cheio": 6932,
      "anges": 6933,
      "Dois": 6934,
      "186": 6935,
      "neurônios": 6936,
      "able": 6937,
      "abriga": 6938,
      "obra": 6939,
      "obvio": 6940,
      "ruas": 6941,
      "estabi": 6942,
      "Polí": 6943,
      "Popular": 6944,
      "Cons": 6945,
      "Contin": 6946,
      "Convolutional": 6947,
      "artérias": 6948,
      "bioquimicas": 6949,
      "bilidades": 6950,
      "Perigo": 6951,
      "assista": 6952,
      "assistir": 6953,
      "assistindo": 6954,
      "Desde": 6955,
      "paixão": 6956,
      "ambienta": 6957,
      "atende": 6958,
      "attra": 6959,
      "possa": 6960,
      "segura": 6961,
      "Empresas": 6962,
      "restaurante": 6963,
      "chos": 6964,
      "cielo": 6965,
      "crea": 6966,
      "create": 6967,
      "realiza": 6968,
      "hima": 6969,
      "Criptografia": 6970,
      "métrica": 6971,
      "bato": 6972,
      "bajo": 6973,
      "computers": 6974,
      "used": 6975,
      "crônicas": 6976,
      "Fome": 6977,
      "Artistas": 6978,
      "Impete": 6979,
      "tóx": 6980,
      "primos": 6981,
      "cídio": 6982,
      "roupa": 6983,
      "estudou": 6984,
      "resolvo": 6985,
      "espacio": 6986,
      "aze": 6987,
      "ástico": 6988,
      "Necesi": 6989,
      "neurons": 6990,
      "hashing": 6991,
      "keep": 6992,
      "pandemia": 6993,
      "dominio": 6994,
      "finan": 6995,
      "mundiais": 6996,
      "interativas": 6997,
      "ween": 6998,
      "sangre": 6999,
      "político": 7000,
      "políticos": 7001,
      "oxigenio": 7002,
      "atração": 7003,
      "químicos": 7004,
      "minerals": 7005,
      "minerales": 7006,
      "pulmões": 7007,
      "endêmica": 7008,
      "partici": 7009,
      "álise": 7010,
      "exercicios": 7011,
      "emotions": 7012,
      "ceuticos": 7013,
      "míni": 7014,
      "ameaç": 7015,
      "conexões": 7016,
      "aposentadoria": 7017,
      "renciar": 7018,
      "durmo": 7019,
      "determina": 7020,
      "locais": 7021,
      "electrones": 7022,
      "frustra": 7023,
      "kkkkk": 7024,
      "geneticas": 7025,
      "beba": 7026,
      "transformer": 7027,
      "segundos": 7028,
      "causam": 7029,
      "trabalham": 7030,
      "1799": 7031,
      "ageil": 7032,
      "mudancas": 7033,
      "automaticas": 7034,
      "1994": 7035,
      "Gratidão": 7036,
      "sólidos": 7037,
      "combina": 7038,
      "analisar": 7039,
      "13º": 7040,
      "policial": 7041,
      "species": 7042,
      "recomendar": 7043,
      "musculo": 7044,
      "mundialmente": 7045,
      "promoção": 7046,
      "construindo": 7047,
      "funcionan": 7048,
      "variância": 7049,
      "destrutiva": 7050,
      "acessível": 7051,
      "envolveu": 7052,
      "fotossíntese": 7053,
      "chance": 7054,
      "recomendacoes": 7055,
      "farmaceuticos": 7056,
      "stituição": 7057,
      "ríos": 7058,
      "ército": 7059,
      "previsoes": 7060,
      "expoente": 7061,
      "permitem": 7062,
      "cirurgia": 7063,
      "magnéticos": 7064,
      "romântico": 7065,
      "ultraprocessados": 7066,
      "aplicacoes": 7067,
      "evite": 7068,
      "respirar": 7069,
      "usuario": 7070,
      "idosos": 7071,
      "tizar": 7072,
      "escrito": 7073,
      "acredita": 7074,
      "específicos": 7075,
      "portugues": 7076,
      "suelo": 7077,
      "escapar": 7078,
      "puede": 7079,
      "esferas": 7080,
      "liderada": 7081,
      "inspirado": 7082,
      "incluindo": 7083,
      "Saúde": 7084,
      "liberando": 7085,
      "emergências": 7086,
      "sificação": 7087,
      "tradução": 7088,
      "requisicao": 7089,
      "requisicoes": 7090,
      "causes": 7091,
      "polinô": 7092,
      "compartilhar": 7093,
      "climáticos": 7094,
      "representacoes": 7095,
      "Atl": 7096,
      "Attention": 7097,
      "Sabia": 7098,
      "aki": 7099,
      "avião": 7100,
      "adultos": 7101,
      "everything": 7102,
      "instructions": 7103,
      "instrucciones": 7104,
      "dimensional": 7105,
      "billions": 7106,
      "substâncias": 7107,
      "conseguir": 7108,
      "Salvador": 7109,
      "Organ": 7110,
      "conquista": 7111,
      "mioterapia": 7112,
      "medicos": 7113,
      "Copacab": 7114,
      "contribuição": 7115,
      "priorize": 7116,
      "consumir": 7117,
      "estrellas": 7118,
      "ministra": 7119,
      "pobreza": 7120,
      "Absurdo": 7121,
      "epidemia": 7122,
      "matrizes": 7123,
      "confuso": 7124,
      "gratuito": 7125,
      "europeu": 7126,
      "tendências": 7127,
      "CRAS": 7128,
      "between": 7129,
      "something": 7130,
      "lometers": 7131,
      "sertanejo": 7132,
      "massive": 7133,
      "galáxias": 7134,
      "Energia": 7135,
      "Institu": 7136,
      "reciclagem": 7137,
      "smartphone": 7138,
      "soberania": 7139,
      "civilização": 7140,
      "treinado": 7141,
      "colapsa": 7142,
      "Maravi": 7143,
      "huesos": 7144,
      "shape": 7145,
      "costas": 7146,
      "associa": 7147,
      "enviar": 7148,
      "enfermeiros": 7149,
      "convencional": 7150,
      "persistir": 7151,
      "harmonia": 7152,
      "montanha": 7153,
      "mosquito": 7154,
      "autenticidade": 7155,
      "alteracao": 7156,
      "avaliacao": 7157,
      "comprimento": 7158,
      "conforto": 7159,
      "Código": 7160,
      "apetite": 7161,
      "evapora": 7162,
      "fenômenos": 7163,
      "hélice": 7164,
      "kilometers": 7165,
      "Índia": 7166,
      "reprimida": 7167,
      "alongamento": 7168,
      "bodies": 7169,
      "cientists": 7170,
      "breathe": 7171,
      "progressão": 7172,
      "explicita": 7173,
      "partículas": 7174,
      "papeis": 7175,
      "patterns": 7176,
      "Segurança": 7177,
      "influência": 7178,
      "ignora": 7179,
      "péssi": 7180,
      "barroco": 7181,
      "comunicarem": 7182,
      "protocolos": 7183,
      "endorfina": 7184,
      "sprints": 7185,
      "sanitize": 7186,
      "tunel": 7187,
      "vpn": 7188,
      "Recebe": 7189,
      "trabalhista": 7190,
      "Features": 7191,
      "Backend": 7192,
      "Frontend": 7193,
      "Hiroshima": 7194,
      "IoT": 7195,
      "Japão": 7196,
      "Nelson": 7197,
      "These": 7198,
      "clinicas": 7199,
      "eficaz": 7200,
      "fenomenos": 7201,
      "hemor": 7202,
      "ilegivel": 7203,
      "colonia": 7204,
      "metodologia": 7205,
      "meetings": 7206,
      "together": 7207,
      "Volume": 7208,
      "vacío": 7209,
      "combusti": 7210,
      "laboratorios": 7211,
      "Nagasaki": 7212,
      "Política": 7213,
      "Perigoso": 7214,
      "ambientais": 7215,
      "Necesitamos": 7216,
      "Copacabana": 7217,
      "Efeito": 7218,
      "Gera": 7219,
      "binas": 7220,
      "gelo": 7221,
      "deira": 7222,
      "molho": 7223,
      "sequências": 7224,
      "impe": 7225,
      "impulso": 7226,
      "lete": 7227,
      "fortes": 7228,
      "minim": 7229,
      "geração": 7230,
      "Proces": 7231,
      "Andro": 7232,
      "bloco": 7233,
      "achment": 7234,
      "hidre": 7235,
      "lizada": 7236,
      "automá": 7237,
      "létrica": 7238,
      "Paris": 7239,
      "GPS": 7240,
      "gordura": 7241,
      "rizado": 7242,
      "potência": 7243,
      "impeachment": 7244,
      "Android": 7245,
      "hidrelétrica": 7246,
      "Até": 7247,
      "Fal": 7248,
      "Rus": 7249,
      "eme": 7250,
      "inven": 7251,
      "curta": 7252,
      "trito": 7253,
      "Oscar": 7254,
      "populoso": 7255,
      "Nilo": 7256,
      "Nieme": 7257,
      "nascem": 7258,
      "Distrito": 7259,
      "Valeu": 7260,
      "Niemeyer": 7261,
      "camb": 7262,
      "clique": 7263,
      "35": 7264,
      "Ce": 7265,
      "Cli": 7266,
      "Cub": 7267,
      "Chat": 7268,
      "Centra": 7269,
      "Econô": 7270,
      "Huma": 7271,
      "MA": 7272,
      "Ob": 7273,
      "Pa": 7274,
      "Pesquis": 7275,
      "RNA": 7276,
      "Son": 7277,
      "TS": 7278,
      "Tro": 7279,
      "Tira": 7280,
      "aco": 7281,
      "agi": 7282,
      "atal": 7283,
      "bui": 7284,
      "ff": 7285,
      "fria": 7286,
      "gestão": 7287,
      "hindu": 7288,
      "ibi": 7289,
      "ições": 7290,
      "iana": 7291,
      "kg": 7292,
      "lento": 7293,
      "mês": 7294,
      "nsa": 7295,
      "nética": 7296,
      "nór": 7297,
      "nitro": 7298,
      "oito": 7299,
      "ologia": 7300,
      "xia": 7301,
      "teo": 7302,
      "tema": 7303,
      "reformas": 7304,
      "meteor": 7305,
      "momila": 7306,
      "dono": 7307,
      "infe": 7308,
      "inveja": 7309,
      "caixa": 7310,
      "camomila": 7311,
      "alinha": 7312,
      "ense": 7313,
      "engra": 7314,
      "engraça": 7315,
      "tiona": 7316,
      "aná": 7317,
      "esper": 7318,
      "uiu": 7319,
      "Conte": 7320,
      "sação": 7321,
      "critiva": 7322,
      "nométricas": 7323,
      "gon": 7324,
      "preda": 7325,
      "preci": 7326,
      "prepar": 7327,
      "prensa": 7328,
      "unica": 7329,
      "voces": 7330,
      "compo": 7331,
      "condu": 7332,
      "nais": 7333,
      "dito": 7334,
      "imposto": 7335,
      "imprensa": 7336,
      "promovi": 7337,
      "vers": 7338,
      "perder": 7339,
      "sensores": 7340,
      "volun": 7341,
      "fire": 7342,
      "fecha": 7343,
      "diagnóstico": 7344,
      "heal": 7345,
      "amb": 7346,
      "Reconhecer": 7347,
      "ensine": 7348,
      "usse": 7349,
      "urar": 7350,
      "urch": 7351,
      "mina": 7352,
      "traiu": 7353,
      "penso": 7354,
      "quarto": 7355,
      "dustrial": 7356,
      "teni": 7357,
      "bili": 7358,
      "medir": 7359,
      "ches": 7360,
      "sites": 7361,
      "frames": 7362,
      "fracasso": 7363,
      "derme": 7364,
      "strua": 7365,
      "consome": 7366,
      "distribu": 7367,
      "queries": 7368,
      "abrir": 7369,
      "Separar": 7370,
      "Descritiva": 7371,
      "transmissão": 7372,
      "ferencial": 7373,
      "Industrial": 7374,
      "Inferencial": 7375,
      "junta": 7376,
      "realismo": 7377,
      "off": 7378,
      "hip": 7379,
      "less": 7380,
      "médio": 7381,
      "tionar": 7382,
      "meiose": 7383,
      "crí": 7384,
      "Rousse": 7385,
      "privada": 7386,
      "ponsivo": 7387,
      "surpre": 7388,
      "generaliza": 7389,
      "crescendo": 7390,
      "servidores": 7391,
      "viola": 7392,
      "transformada": 7393,
      "confiar": 7394,
      "particula": 7395,
      "Prevenção": 7396,
      "sozinha": 7397,
      "necessidade": 7398,
      "produzem": 7399,
      "processos": 7400,
      "Responsivo": 7401,
      "equacoes": 7402,
      "barriga": 7403,
      "ocupado": 7404,
      "1990": 7405,
      "Evolucao": 7406,
      "policia": 7407,
      "diges": 7408,
      "Lutero": 7409,
      "projeto": 7410,
      "variável": 7411,
      "hackear": 7412,
      "Church": 7413,
      "investiga": 7414,
      "interessa": 7415,
      "registra": 7416,
      "desafio": 7417,
      "algoritmo": 7418,
      "federal": 7419,
      "comporta": 7420,
      "comportamento": 7421,
      "descobrir": 7422,
      "múltiplos": 7423,
      "REM": 7424,
      "robótica": 7425,
      "trigonométricas": 7426,
      "transitions": 7427,
      "contínua": 7428,
      "visivel": 7429,
      "nenhuma": 7430,
      "cloud": 7431,
      "ianismo": 7432,
      "manutenção": 7433,
      "desabafar": 7434,
      "Solucao": 7435,
      "mpada": 7436,
      "descoberta": 7437,
      "keyframes": 7438,
      "crenças": 7439,
      "Celulas": 7440,
      "Egito": 7441,
      "Animacoes": 7442,
      "Pergunta": 7443,
      "glicose": 7444,
      "ChatGPT": 7445,
      "atalho": 7446,
      "hinduísmo": 7447,
      "nórdica": 7448,
      "engraçado": 7449,
      "promovido": 7450,
      "Churchill": 7451,
      "Elim": 7452,
      "phishing": 7453,
      "fogo": 7454,
      "ity": 7455,
      "constitu": 7456,
      "Processa": 7457,
      "Wor": 7458,
      "Volta": 7459,
      "2FA": 7460,
      "2L": 7461,
      "4ac": 7462,
      "800": 7463,
      "AD": 7464,
      "Ad": 7465,
      "Apar": 7466,
      "Anos": 7467,
      "Area": 7468,
      "Africa": 7469,
      "Aprove": 7470,
      "Bel": 7471,
      "Bad": 7472,
      "Brea": 7473,
      "BPC": 7474,
      "Cé": 7475,
      "Clar": 7476,
      "Cai": 7477,
      "Cidade": 7478,
      "Cae": 7479,
      "Cris": 7480,
      "CRE": 7481,
      "Dri": 7482,
      "Data": 7483,
      "Exa": 7484,
      "ENE": 7485,
      "FG": 7486,
      "Fis": 7487,
      "Fran": 7488,
      "Fundo": 7489,
      "Fica": 7490,
      "Floresta": 7491,
      "Gar": 7492,
      "Ger": 7493,
      "Gal": 7494,
      "Gand": 7495,
      "Gerais": 7496,
      "Garo": 7497,
      "Grosso": 7498,
      "Hill": 7499,
      "IB": 7500,
      "Ipan": 7501,
      "JK": 7502,
      "Jos": 7503,
      "Mine": 7504,
      "Mana": 7505,
      "Minas": 7506,
      "Mato": 7507,
      "Macro": 7508,
      "Not": 7509,
      "Nob": 7510,
      "Our": 7511,
      "Oeste": 7512,
      "Prá": 7513,
      "Primeira": 7514,
      "Preser": 7515,
      "Photosynthesis": 7516,
      "Spo": 7517,
      "Star": 7518,
      "Stre": 7519,
      "Sil": 7520,
      "SUA": 7521,
      "Smart": 7522,
      "Shei": 7523,
      "Scientists": 7524,
      "Uso": 7525,
      "Uru": 7526,
      "Vita": 7527,
      "Velo": 7528,
      "Velha": 7529,
      "Wit": 7530,
      "Water": 7531,
      "af": 7532,
      "acara": 7533,
      "aça": 7534,
      "ajus": 7535,
      "auxílio": 7536,
      "bx": 7537,
      "bla": 7538,
      "binar": 7539,
      "brando": 7540,
      "bela": 7541,
      "béns": 7542,
      "cum": 7543,
      "chora": 7544,
      "cted": 7545,
      "eó": 7546,
      "ere": 7547,
      "eje": 7548,
      "eita": 7549,
      "edifí": 7550,
      "ease": 7551,
      "efec": 7552,
      "fó": 7553,
      "fan": 7554,
      "hu": 7555,
      "hello": 7556,
      "iá": 7557,
      "iman": 7558,
      "iano": 7559,
      "imer": 7560,
      "jé": 7561,
      "ker": 7562,
      "kil": 7563,
      "lto": 7564,
      "lla": 7565,
      "lanç": 7566,
      "lendário": 7567,
      "miza": 7568,
      "mós": 7569,
      "ovo": 7570,
      "osa": 7571,
      "ople": 7572,
      "océ": 7573,
      "otros": 7574,
      "pto": 7575,
      "pico": 7576,
      "pus": 7577,
      "pux": 7578,
      "pand": 7579,
      "ption": 7580,
      "rh": 7581,
      "rinho": 7582,
      "rível": 7583,
      "sh": 7584,
      "sca": 7585,
      "suco": 7586,
      "sali": 7587,
      "suem": 7588,
      "tum": 7589,
      "ust": 7590,
      "vue": 7591,
      "vin": 7592,
      "vimi": 7593,
      "vlw": 7594,
      "ws": 7595,
      "wou": 7596,
      "xar": 7597,
      "xinto": 7598,
      "yaw": 7599,
      "ypti": 7600,
      "ze": 7601,
      "zer": 7602,
      "África": 7603,
      "Ótimo": 7604,
      "âmides": 7605,
      "çando": 7606,
      "πr": 7607,
      "ars": 7608,
      "dedi": 7609,
      "deos": 7610,
      "devolve": 7611,
      "decomposicao": 7612,
      "rano": 7613,
      "racismo": 7614,
      "coro": 7615,
      "coberto": 7616,
      "cobrindo": 7617,
      "colesterol": 7618,
      "teis": 7619,
      "teve": 7620,
      "teiro": 7621,
      "oria": 7622,
      "orbi": 7623,
      "red": 7624,
      "recom": 7625,
      "repel": 7626,
      "refres": 7627,
      "renos": 7628,
      "reach": 7629,
      "recí": 7630,
      "relóg": 7631,
      "reproduce": 7632,
      "retrata": 7633,
      "reinicia": 7634,
      "regenerativa": 7635,
      "main": 7636,
      "masa": 7637,
      "macar": 7638,
      "modo": 7639,
      "movimi": 7640,
      "doar": 7641,
      "doras": 7642,
      "doação": 7643,
      "dolor": 7644,
      "tamo": 7645,
      "tanea": 7646,
      "too": 7647,
      "tox": 7648,
      "ink": 7649,
      "inda": 7650,
      "intro": 7651,
      "inden": 7652,
      "inhas": 7653,
      "indiferente": 7654,
      "injusta": 7655,
      "incerteza": 7656,
      "injusto": 7657,
      "cem": 7658,
      "cena": 7659,
      "centes": 7660,
      "ceitos": 7661,
      "cedência": 7662,
      "emb": 7663,
      "cate": 7664,
      "caso": 7665,
      "cante": 7666,
      "cados": 7667,
      "cadas": 7668,
      "catal": 7669,
      "cató": 7670,
      "eron": 7671,
      "ergias": 7672,
      "além": 7673,
      "altitude": 7674,
      "queia": 7675,
      "root": 7676,
      "romano": 7677,
      "enfa": 7678,
      "ench": 7679,
      "enfre": 7680,
      "energias": 7681,
      "tiver": 7682,
      "times": 7683,
      "anda": 7684,
      "ania": 7685,
      "umar": 7686,
      "sone": 7687,
      "solos": 7688,
      "rito": 7689,
      "esia": 7690,
      "estos": 7691,
      "estica": 7692,
      "esfé": 7693,
      "vac": 7694,
      "Cozinhe": 7695,
      "hop": 7696,
      "hoven": 7697,
      "plástico": 7698,
      "sividade": 7699,
      "saí": 7700,
      "saiu": 7701,
      "boleta": 7702,
      "cidas": 7703,
      "cifica": 7704,
      "potenciação": 7705,
      "novem": 7706,
      "notí": 7707,
      "prende": 7708,
      "presos": 7709,
      "lotada": 7710,
      "lhando": 7711,
      "secon": 7712,
      "commun": 7713,
      "contenta": 7714,
      "contempor": 7715,
      "concorda": 7716,
      "menso": 7717,
      "mentário": 7718,
      "expira": 7719,
      "expand": 7720,
      "tus": 7721,
      "dice": 7722,
      "divisão": 7723,
      "divisi": 7724,
      "diárias": 7725,
      "carga": 7726,
      "cargas": 7727,
      "cartesi": 7728,
      "carimb": 7729,
      "imunidade": 7730,
      "provável": 7731,
      "procurando": 7732,
      "lampada": 7733,
      "hay": 7734,
      "have": 7735,
      "hacia": 7736,
      "habita": 7737,
      "verduras": 7738,
      "basta": 7739,
      "fatal": 7740,
      "fatores": 7741,
      "famili": 7742,
      "ved": 7743,
      "veículos": 7744,
      "resto": 7745,
      "resse": 7746,
      "quimioterapia": 7747,
      "liana": 7748,
      "leg": 7749,
      "lead": 7750,
      "funcionou": 7751,
      "antecedência": 7752,
      "grama": 7753,
      "plique": 7754,
      "volte": 7755,
      "viva": 7756,
      "viento": 7757,
      "acti": 7758,
      "onto": 7759,
      "onha": 7760,
      "only": 7761,
      "fight": 7762,
      "pegada": 7763,
      "pector": 7764,
      "people": 7765,
      "marinha": 7766,
      "marães": 7767,
      "simul": 7768,
      "diam": 7769,
      "forne": 7770,
      "fornece": 7771,
      "velt": 7772,
      "four": 7773,
      "fodas": 7774,
      "joada": 7775,
      "interior": 7776,
      "Reacoes": 7777,
      "master": 7778,
      "paul": 7779,
      "urban": 7780,
      "mind": 7781,
      "travou": 7782,
      "zadas": 7783,
      "AIDS": 7784,
      "Depressão": 7785,
      "lino": 7786,
      "mir": 7787,
      "gulos": 7788,
      "implementado": 7789,
      "desenvolvida": 7790,
      "relativo": 7791,
      "inici": 7792,
      "inicial": 7793,
      "quinho": 7794,
      "ticação": 7795,
      "gaú": 7796,
      "gatos": 7797,
      "games": 7798,
      "mandando": 7799,
      "mangá": 7800,
      "desiste": 7801,
      "desista": 7802,
      "desordem": 7803,
      "fall": 7804,
      "eleições": 7805,
      "duais": 7806,
      "funcionam": 7807,
      "gios": 7808,
      "gimento": 7809,
      "tendão": 7810,
      "cines": 7811,
      "pical": 7812,
      "piece": 7813,
      "bilita": 7814,
      "termas": 7815,
      "subi": 7816,
      "subato": 7817,
      "tron": 7818,
      "trobras": 7819,
      "interno": 7820,
      "documentário": 7821,
      "escola": 7822,
      "curvas": 7823,
      "plana": 7824,
      "planes": 7825,
      "administra": 7826,
      "parabéns": 7827,
      "anota": 7828,
      "irregular": 7829,
      "trico": 7830,
      "fast": 7831,
      "Tabela": 7832,
      "thx": 7833,
      "gerenciar": 7834,
      "mesmos": 7835,
      "lutou": 7836,
      "Sound": 7837,
      "teste": 7838,
      "calendário": 7839,
      "começou": 7840,
      "play": 7841,
      "guei": 7842,
      "night": 7843,
      "Leonar": 7844,
      "bye": 7845,
      "genéticas": 7846,
      "analgé": 7847,
      "learn": 7848,
      "ethoven": 7849,
      "puder": 7850,
      "defina": 7851,
      "judi": 7852,
      "judeus": 7853,
      "criador": 7854,
      "criativa": 7855,
      "Joaqui": 7856,
      "disease": 7857,
      "poderia": 7858,
      "esperan": 7859,
      "especifica": 7860,
      "inversa": 7861,
      "metade": 7862,
      "icate": 7863,
      "icação": 7864,
      "Doação": 7865,
      "abrange": 7866,
      "obser": 7867,
      "obtida": 7868,
      "theid": 7869,
      "arei": 7870,
      "estas": 7871,
      "estava": 7872,
      "estamos": 7873,
      "estabilidade": 7874,
      "programada": 7875,
      "dengue": 7876,
      "Posi": 7877,
      "Conceitos": 7878,
      "ProUni": 7879,
      "Procla": 7880,
      "Andra": 7881,
      "Angulos": 7882,
      "artística": 7883,
      "CPU": 7884,
      "ecológico": 7885,
      "inspirar": 7886,
      "estudantes": 7887,
      "sonhar": 7888,
      "assisti": 7889,
      "bertura": 7890,
      "completamente": 7891,
      "gasmo": 7892,
      "atmós": 7893,
      "possui": 7894,
      "massacre": 7895,
      "Estarei": 7896,
      "Embora": 7897,
      "restaura": 7898,
      "restaurar": 7899,
      "chou": 7900,
      "ficada": 7901,
      "mortif": 7902,
      "align": 7903,
      "Funções": 7904,
      "Tratado": 7905,
      "extin": 7906,
      "nutricional": 7907,
      "lhosa": 7908,
      "creating": 7909,
      "ânicos": 7910,
      "maldicao": 7911,
      "realização": 7912,
      "hidra": 7913,
      "salado": 7914,
      "salty": 7915,
      "método": 7916,
      "fígado": 7917,
      "jantando": 7918,
      "músicas": 7919,
      "valorizava": 7920,
      "cionar": 7921,
      "cionista": 7922,
      "cris": 7923,
      "crista": 7924,
      "crise": 7925,
      "séculos": 7926,
      "entreteni": 7927,
      "Trabalho": 7928,
      "reações": 7929,
      "técnicas": 7930,
      "Roose": 7931,
      "positivo": 7932,
      "primo": 7933,
      "fusion": 7934,
      "lógicas": 7935,
      "quadrinho": 7936,
      "infarto": 7937,
      "universe": 7938,
      "consistência": 7939,
      "información": 7940,
      "cór": 7941,
      "vares": 7942,
      "varias": 7943,
      "sexta": 7944,
      "sexuais": 7945,
      "lín": 7946,
      "ight": 7947,
      "surpreso": 7948,
      "survive": 7949,
      "surface": 7950,
      "surgimento": 7951,
      "minutes": 7952,
      "Inclu": 7953,
      "Incrível": 7954,
      "periodica": 7955,
      "banana": 7956,
      "germ": 7957,
      "pesados": 7958,
      "Marvel": 7959,
      "Marcha": 7960,
      "condições": 7961,
      "públicos": 7962,
      "neuronas": 7963,
      "cuide": 7964,
      "cuido": 7965,
      "converte": 7966,
      "conversas": 7967,
      "conversando": 7968,
      "Formulas": 7969,
      "Nova": 7970,
      "Racionais": 7971,
      "naturalista": 7972,
      "mantenha": 7973,
      "circulos": 7974,
      "dominante": 7975,
      "pessoais": 7976,
      "solares": 7977,
      "freelan": 7978,
      "regional": 7979,
      "governou": 7980,
      "submissão": 7981,
      "interação": 7982,
      "carrega": 7983,
      "triangulos": 7984,
      "presentes": 7985,
      "Noronha": 7986,
      "atrai": 7987,
      "socialismo": 7988,
      "termina": 7989,
      "objects": 7990,
      "configu": 7991,
      "confiável": 7992,
      "ctan": 7993,
      "álcool": 7994,
      "exercitar": 7995,
      "continentes": 7996,
      "autoconhecimento": 7997,
      "drink": 7998,
      "Pesos": 7999,
      "Petrobras": 8000,
      "dividi": 8001,
      "alimentares": 8002,
      "correto": 8003,
      "justiça": 8004,
      "perigoso": 8005,
      "velocidad": 8006,
      "multiplicar": 8007,
      "multiplicado": 8008,
      "multidiscipl": 8009,
      "baião": 8010,
      "aquele": 8011,
      "Carlos": 8012,
      "Cardoso": 8013,
      "rendicao": 8014,
      "determinação": 8015,
      "hospital": 8016,
      "medicação": 8017,
      "escrevendo": 8018,
      "equacao": 8019,
      "destina": 8020,
      "síveis": 8021,
      "pesquisar": 8022,
      "pesquisas": 8023,
      "Amazônica": 8024,
      "barco": 8025,
      "nucleares": 8026,
      "Partido": 8027,
      "Paraná": 8028,
      "helps": 8029,
      "memory": 8030,
      "estoicismo": 8031,
      "capitalismo": 8032,
      "centrais": 8033,
      "Tipos": 8034,
      "regulação": 8035,
      "acordar": 8036,
      "tell": 8037,
      "trabalhadores": 8038,
      "comunicacao": 8039,
      "seletiva": 8040,
      "selection": 8041,
      "automação": 8042,
      "automatizar": 8043,
      "mentindo": 8044,
      "sólido": 8045,
      "respeite": 8046,
      "grow": 8047,
      "sociedades": 8048,
      "digesta": 8049,
      "ligamentos": 8050,
      "speed": 8051,
      "absorb": 8052,
      "absorver": 8053,
      "vulner": 8054,
      "Aumenta": 8055,
      "Transmite": 8056,
      "construcao": 8057,
      "pací": 8058,
      "decidir": 8059,
      "romanas": 8060,
      "projetada": 8061,
      "adapta": 8062,
      "revise": 8063,
      "funcionando": 8064,
      "temperaturas": 8065,
      "regulam": 8066,
      "regulates": 8067,
      "bencao": 8068,
      "destruída": 8069,
      "prevenir": 8070,
      "violencia": 8071,
      "violenta": 8072,
      "lheres": 8073,
      "acelerado": 8074,
      "envolvendo": 8075,
      "distribui": 8076,
      "ilumina": 8077,
      "sustentáveis": 8078,
      "benefi": 8079,
      "cálcio": 8080,
      "arrocha": 8081,
      "celeste": 8082,
      "favorito": 8083,
      "básico": 8084,
      "orgânico": 8085,
      "refloresta": 8086,
      "convier": 8087,
      "chamada": 8088,
      "ajudou": 8089,
      "espécie": 8090,
      "Colônia": 8091,
      "tradicionais": 8092,
      "abertos": 8093,
      "memórias": 8094,
      "magnética": 8095,
      "escuta": 8096,
      "lizar": 8097,
      "lizou": 8098,
      "ultravioleta": 8099,
      "feição": 8100,
      "combustão": 8101,
      "religioso": 8102,
      "escrita": 8103,
      "leitura": 8104,
      "deixar": 8105,
      "Mandela": 8106,
      "Robôs": 8107,
      "ayudar": 8108,
      "ayuda": 8109,
      "sueño": 8110,
      "releas": 8111,
      "concentração": 8112,
      "necessario": 8113,
      "elétricas": 8114,
      "effect": 8115,
      "cibernética": 8116,
      "Disponha": 8117,
      "Alimentos": 8118,
      "liderou": 8119,
      "negó": 8120,
      "geralmente": 8121,
      "Pernambucana": 8122,
      "acordei": 8123,
      "acordeão": 8124,
      "palavra": 8125,
      "esquema": 8126,
      "situação": 8127,
      "pagode": 8128,
      "Conhecimento": 8129,
      "Assistência": 8130,
      "eletromagnética": 8131,
      "climática": 8132,
      "Cruzadas": 8133,
      "amazônica": 8134,
      "redução": 8135,
      "billion": 8136,
      "censurou": 8137,
      "Stalin": 8138,
      "armado": 8139,
      "detect": 8140,
      "rendeu": 8141,
      "taoísmo": 8142,
      "bombea": 8143,
      "simulam": 8144,
      "Cultura": 8145,
      "Vacinas": 8146,
      "revoltaram": 8147,
      "tabela": 8148,
      "infecção": 8149,
      "infecções": 8150,
      "contribuiu": 8151,
      "vegetar": 8152,
      "perdidissimo": 8153,
      "prioridade": 8154,
      "estrella": 8155,
      "ministro": 8156,
      "estrange": 8157,
      "Guimarães": 8158,
      "nenhum": 8159,
      "expansão": 8160,
      "articula": 8161,
      "articulação": 8162,
      "deserto": 8163,
      "orgulhosa": 8164,
      "increase": 8165,
      "cabelo": 8166,
      "perimetro": 8167,
      "Produtivo": 8168,
      "europeus": 8169,
      "Começou": 8170,
      "treinamento": 8171,
      "excessivo": 8172,
      "físicos": 8173,
      "gênios": 8174,
      "questões": 8175,
      "tify": 8176,
      "exatamente": 8177,
      "perseguiu": 8178,
      "XVIII": 8179,
      "rebeldes": 8180,
      "Berlim": 8181,
      "Beethoven": 8182,
      "separatista": 8183,
      "prévio": 8184,
      "Atenas": 8185,
      "Justiça": 8186,
      "Vídeo": 8187,
      "borboleta": 8188,
      "original": 8189,
      "source": 8190,
      "cardíacas": 8191,
      "calculada": 8192,
      "reciclável": 8193,
      "vulcão": 8194,
      "Autoestima": 8195,
      "influenciado": 8196,
      "Pensa": 8197,
      "adequ": 8198,
      "milhares": 8199,
      "hipertensão": 8200,
      "Brasileira": 8201,
      "Charles": 8202,
      "FIES": 8203,
      "Lispector": 8204,
      "SEO": 8205,
      "eterno": 8206,
      "asteroides": 8207,
      "satélites": 8208,
      "literária": 8209,
      "parasit": 8210,
      "mientras": 8211,
      "influenciar": 8212,
      "cósmica": 8213,
      "dificuldades": 8214,
      "depôs": 8215,
      "capazes": 8216,
      "passeio": 8217,
      "Atração": 8218,
      "Católica": 8219,
      "Felicidade": 8220,
      "Mistura": 8221,
      "Oceania": 8222,
      "idioma": 8223,
      "totalitário": 8224,
      "power": 8225,
      "filosófica": 8226,
      "Nazismo": 8227,
      "churrasco": 8228,
      "adversidades": 8229,
      "tóxicos": 8230,
      "azeite": 8231,
      "keeps": 8232,
      "polinômio": 8233,
      "Instituto": 8234,
      "hemorrá": 8235,
      "meteoro": 8236,
      "preparando": 8237,
      "Apartheid": 8238,
      "Aproveite": 8239,
      "Breaking": 8240,
      "Clarice": 8241,
      "Caetano": 8242,
      "CREAS": 8243,
      "ENEM": 8244,
      "FGTS": 8245,
      "Gandhi": 8246,
      "Ipanema": 8247,
      "José": 8248,
      "Manaus": 8249,
      "Macronutriente": 8250,
      "Nobel": 8251,
      "Spotify": 8252,
      "SUAS": 8253,
      "Sheila": 8254,
      "Uruguai": 8255,
      "Without": 8256,
      "acarajé": 8257,
      "açaí": 8258,
      "ajustados": 8259,
      "imanes": 8260,
      "vuelan": 8261,
      "would": 8262,
      "relógio": 8263,
      "movimiento": 8264,
      "taneamente": 8265,
      "enfatiza": 8266,
      "novembro": 8267,
      "notícias": 8268,
      "second": 8269,
      "contentamento": 8270,
      "carimbó": 8271,
      "familiar": 8272,
      "simultaneamente": 8273,
      "fodasse": 8274,
      "masterpiece": 8275,
      "subatomicas": 8276,
      "Leonardo": 8277,
      "analgésico": 8278,
      "Joaquim": 8279,
      "Proclamação": 8280,
      "Andrade": 8281,
      "atmósfera": 8282,
      "mortifero": 8283,
      "entretenimento": 8284,
      "Roosevelt": 8285,
      "multidisciplinar": 8286,
      "reflorestamento": 8287,
      "%.": 8288,
      "Acordo": 8289,
      "Blo": 8290,
      "Faz": 8291,
      "Gan": 8292,
      "Ita": 8293,
      "Pain": 8294,
      "Tur": 8295,
      "tência": 8296,
      "causado": 8297,
      "tima": 8298,
      "iatu": 8299,
      "Requer": 8300,
      "miniatu": 8301,
      "eleva": 8302,
      "Consequências": 8303,
      "Processo": 8304,
      "Inves": 8305,
      "cício": 8306,
      "nordeste": 8307,
      "voltaicos": 8308,
      "julgar": 8309,
      "compras": 8310,
      "elétrico": 8311,
      "registro": 8312,
      "Exercício": 8313,
      "eletrôn": 8314,
      "emissões": 8315,
      "derretimento": 8316,
      "fotovoltaicos": 8317,
      "narrativa": 8318,
      "Elimine": 8319,
      "miniaturizado": 8320,
      "26": 8321,
      "AR": 8322,
      "Tchau": 8323,
      "Wide": 8324,
      "tuno": 8325,
      "proximo": 8326,
      "animal": 8327,
      "miu": 8328,
      "distante": 8329,
      "Netuno": 8330,
      "Cuide": 8331,
      "World": 8332,
      "Fre": 8333,
      "bateria": 8334,
      "App": 8335,
      "Cs": 8336,
      "Du": 8337,
      "EAD": 8338,
      "Fu": 8339,
      "GO": 8340,
      "Hon": 8341,
      "Jato": 8342,
      "Lava": 8343,
      "Marte": 8344,
      "Nas": 8345,
      "Ops": 8346,
      "Psico": 8347,
      "Rela": 8348,
      "Sinal": 8349,
      "Varia": 8350,
      "aus": 8351,
      "clu": 8352,
      "ego": 8353,
      "ges": 8354,
      "grosso": 8355,
      "imo": 8356,
      "ili": 8357,
      "juiz": 8358,
      "ken": 8359,
      "ltimo": 8360,
      "lenta": 8361,
      "mó": 8362,
      "mônio": 8363,
      "nê": 8364,
      "nível": 8365,
      "pó": 8366,
      "uti": 8367,
      "utrons": 8368,
      "vu": 8369,
      "vência": 8370,
      "yle": 8371,
      "zas": 8372,
      "Ál": 8373,
      "áu": 8374,
      "âneo": 8375,
      "édito": 8376,
      "íd": 8377,
      "ódica": 8378,
      "último": 8379,
      "√(": 8380,
      "radio": 8381,
      "cooperação": 8382,
      "terior": 8383,
      "reje": 8384,
      "retro": 8385,
      "regenera": 8386,
      "medula": 8387,
      "dovi": 8388,
      "topo": 8389,
      "inim": 8390,
      "insu": 8391,
      "invas": 8392,
      "intr": 8393,
      "ceta": 8394,
      "cende": 8395,
      "alu": 8396,
      "quetas": 8397,
      "engan": 8398,
      "ties": 8399,
      "tiliz": 8400,
      "anha": 8401,
      "análise": 8402,
      "rim": 8403,
      "vogado": 8404,
      "esquer": 8405,
      "estoma": 8406,
      "vazio": 8407,
      "Colo": 8408,
      "strui": 8409,
      "gost": 8410,
      "Meta": 8411,
      "une": 8412,
      "secre": 8413,
      "compli": 8414,
      "competi": 8415,
      "contêm": 8416,
      "expe": 8417,
      "existimos": 8418,
      "dign": 8419,
      "proativo": 8420,
      "proibi": 8421,
      "fago": 8422,
      "licioso": 8423,
      "perman": 8424,
      "senta": 8425,
      "sentimos": 8426,
      "paro": 8427,
      "pares": 8428,
      "itocina": 8429,
      "vicia": 8430,
      "logica": 8431,
      "hemo": 8432,
      "Realidade": 8433,
      "tosse": 8434,
      "pagar": 8435,
      "urina": 8436,
      "trafe": 8437,
      "nomes": 8438,
      "Dev": 8439,
      "Gover": 8440,
      "cinto": 8441,
      "pila": 8442,
      "gundo": 8443,
      "cordar": 8444,
      "escolas": 8445,
      "advogado": 8446,
      "Escre": 8447,
      "trio": 8448,
      "avis": 8449,
      "precisam": 8450,
      "luxo": 8451,
      "lucro": 8452,
      "testa": 8453,
      "planejamento": 8454,
      "strói": 8455,
      "pura": 8456,
      "criativo": 8457,
      "espera": 8458,
      "obe": 8459,
      "obter": 8460,
      "there": 8461,
      "diversi": 8462,
      "veneno": 8463,
      "corajo": 8464,
      "biológica": 8465,
      "rapeu": 8466,
      "iram": 8467,
      "Sei": 8468,
      "Segundo": 8469,
      "bert": 8470,
      "ilusao": 8471,
      "saudades": 8472,
      "Empatia": 8473,
      "ambientes": 8474,
      "Corpo": 8475,
      "cró": 8476,
      "crédito": 8477,
      "dependem": 8478,
      "Revolucionou": 8479,
      "positiva": 8480,
      "processes": 8481,
      "diferencial": 8482,
      "pesada": 8483,
      "magma": 8484,
      "Rayle": 8485,
      "frequência": 8486,
      "compreen": 8487,
      "Ciber": 8488,
      "299": 8489,
      "emocao": 8490,
      "Presidente": 8491,
      "glob": 8492,
      "calorias": 8493,
      "dividir": 8494,
      "oxitocina": 8495,
      "Resili": 8496,
      "escreve": 8497,
      "comecei": 8498,
      "179": 8499,
      "operações": 8500,
      "analiso": 8501,
      "clare": 8502,
      "ligações": 8503,
      "Luta": 8504,
      "lágeno": 8505,
      "ladora": 8506,
      "grite": 8507,
      "questiona": 8508,
      "1964": 8509,
      "1985": 8510,
      "convivência": 8511,
      "mitose": 8512,
      "magnético": 8513,
      "extremo": 8514,
      "oportunidades": 8515,
      "ciberseguranca": 8516,
      "abolição": 8517,
      "liberalismo": 8518,
      "acumulado": 8519,
      "continuo": 8520,
      "paralisia": 8521,
      "econômica": 8522,
      "múltiplas": 8523,
      "simulação": 8524,
      "gasosa": 8525,
      "tendões": 8526,
      "792": 8527,
      "previdência": 8528,
      "autoritário": 8529,
      "transparência": 8530,
      "prisi": 8531,
      "obrigatório": 8532,
      "feudal": 8533,
      "degrada": 8534,
      "tectônicas": 8535,
      "tivismo": 8536,
      "apresentação": 8537,
      "contexto": 8538,
      "Central": 8539,
      "Sonhos": 8540,
      "build": 8541,
      "engraçada": 8542,
      "Contem": 8543,
      "crítico": 8544,
      "ausência": 8545,
      "nêutrons": 8546,
      "inimigo": 8547,
      "estomago": 8548,
      "expecta": 8549,
      "dignidade": 8550,
      "Rayleigh": 8551,
      "Resiliência": 8552,
      "jão": 8553,
      "rub": 8554,
      "compare": 8555,
      "commer": 8556,
      "derrub": 8557,
      "Seja": 8558,
      "Força": 8559,
      "investimentos": 8560,
      "conquistas": 8561,
      "moedas": 8562,
      "Amizade": 8563,
      "commerce": 8564,
      "Beb": 8565,
      "converso": 8566,
      "206": 8567,
      "Internet": 8568,
      "fique": 8569,
      "%),": 8570,
      ")!": 8571,
      "97": 8572,
      "AE": 8573,
      "Ae": 8574,
      "Ao": 8575,
      "Ado": 8576,
      "Ace": 8577,
      "Avis": 8578,
      "Abriga": 8579,
      "Atende": 8580,
      "Ainda": 8581,
      "Abertura": 8582,
      "BS": 8583,
      "Bra": 8584,
      "Ben": 8585,
      "Bai": 8586,
      "Bir": 8587,
      "BDS": 8588,
      "CF": 8589,
      "CM": 8590,
      "Cerrado": 8591,
      "Cear": 8592,
      "DA": 8593,
      "Deu": 8594,
      "Elas": 8595,
      "Educa": 8596,
      "Every": 8597,
      "Fas": 8598,
      "Fri": 8599,
      "Ferramenta": 8600,
      "Fru": 8601,
      "Franca": 8602,
      "Fór": 8603,
      "Flor": 8604,
      "GE": 8605,
      "Gou": 8606,
      "Gên": 8607,
      "Hg": 8608,
      "Há": 8609,
      "Hai": 8610,
      "Houve": 8611,
      "HIV": 8612,
      "Inova": 8613,
      "IBA": 8614,
      "ICM": 8615,
      "Jr": 8616,
      "Já": 8617,
      "Jup": 8618,
      "Len": 8619,
      "Ling": 8620,
      "MU": 8621,
      "Men": 8622,
      "Mus": 8623,
      "Mario": 8624,
      "NS": 8625,
      "Nú": 8626,
      "Of": 8627,
      "Onde": 8628,
      "Olá": 8629,
      "Olinda": 8630,
      "Pas": 8631,
      "Pres": 8632,
      "PAI": 8633,
      "Pot": 8634,
      "Peste": 8635,
      "RF": 8636,
      "Rel": 8637,
      "Respe": 8638,
      "Sis": 8639,
      "Sus": 8640,
      "Sigo": 8641,
      "Sleep": 8642,
      "Sacro": 8643,
      "Santa": 8644,
      "TV": 8645,
      "Tá": 8646,
      "Tambi": 8647,
      "That": 8648,
      "Thing": 8649,
      "Tamb": 8650,
      "UN": 8651,
      "Ur": 8652,
      "Urano": 8653,
      "UBS": 8654,
      "Vi": 8655,
      "Vem": 8656,
      "Vene": 8657,
      "Vinici": 8658,
      "Zero": 8659,
      "ago": 8660,
      "abre": 8661,
      "ave": 8662,
      "acu": 8663,
      "agente": 8664,
      "aero": 8665,
      "aquí": 8666,
      "ativos": 8667,
      "afri": 8668,
      "bim": 8669,
      "buco": 8670,
      "bana": 8671,
      "bólica": 8672,
      "ctiva": 8673,
      "cru": 8674,
      "cles": 8675,
      "cumula": 8676,
      "ctricas": 8677,
      "dé": 8678,
      "dê": 8679,
      "dina": 8680,
      "eas": 8681,
      "efe": 8682,
      "emos": 8683,
      "eat": 8684,
      "each": 8685,
      "eds": 8686,
      "fú": 8687,
      "fuma": 8688,
      "ffe": 8689,
      "flor": 8690,
      "gr": 8691,
      "gla": 8692,
      "gio": 8693,
      "gus": 8694,
      "gele": 8695,
      "glu": 8696,
      "gthen": 8697,
      "gypti": 8698,
      "hm": 8699,
      "hn": 8700,
      "ium": 8701,
      "iet": 8702,
      "itude": 8703,
      "imedia": 8704,
      "iones": 8705,
      "ka": 8706,
      "kle": 8707,
      "kets": 8708,
      "lf": 8709,
      "ll": 8710,
      "lma": 8711,
      "lis": 8712,
      "lli": 8713,
      "lle": 8714,
      "lendo": 8715,
      "llu": 8716,
      "lsão": 8717,
      "lleva": 8718,
      "mue": 8719,
      "mitos": 8720,
      "mânico": 8721,
      "mful": 8722,
      "ná": 8723,
      "ní": 8724,
      "nia": 8725,
      "numa": 8726,
      "ntar": 8727,
      "ney": 8728,
      "nicos": 8729,
      "odor": 8730,
      "ofi": 8731,
      "otra": 8732,
      "open": 8733,
      "ocur": 8734,
      "own": 8735,
      "olhar": 8736,
      "olhando": 8737,
      "pente": 8738,
      "ppen": 8739,
      "pesco": 8740,
      "rindo": 8741,
      "rânea": 8742,
      "sw": 8743,
      "shar": 8744,
      "shor": 8745,
      "smel": 8746,
      "tle": 8747,
      "tinho": 8748,
      "tters": 8749,
      "twin": 8750,
      "tânico": 8751,
      "ud": 8752,
      "udos": 8753,
      "utiliza": 8754,
      "udita": 8755,
      "vores": 8756,
      "wo": 8757,
      "winter": 8758,
      "wire": 8759,
      "xas": 8760,
      "xim": 8761,
      "zonal": 8762,
      "zart": 8763,
      "°.": 8764,
      "²)": 8765,
      "²).": 8766,
      "Área": 8767,
      "Ásia": 8768,
      "Ângu": 8769,
      "Épo": 8770,
      "águ": 8771,
      "çul": 8772,
      "éria": 8773,
      "ían": 8774,
      "ítica": 8775,
      "íamos": 8776,
      "ínica": 8777,
      "íris": 8778,
      "íase": 8779,
      "ície": 8780,
      "óis": 8781,
      "óvel": 8782,
      "óide": 8783,
      "ómetros": 8784,
      "arri": 8785,
      "armas": 8786,
      "dero": 8787,
      "deso": 8788,
      "deno": 8789,
      "desin": 8790,
      "demi": 8791,
      "desem": 8792,
      "defici": 8793,
      "depressão": 8794,
      "demissão": 8795,
      "debate": 8796,
      "depriva": 8797,
      "raí": 8798,
      "ramo": 8799,
      "raes": 8800,
      "rador": 8801,
      "racis": 8802,
      "codi": 8803,
      "covi": 8804,
      "comes": 8805,
      "coach": 8806,
      "cogni": 8807,
      "coloca": 8808,
      "cozin": 8809,
      "colágeno": 8810,
      "coffe": 8811,
      "tendo": 8812,
      "oro": 8813,
      "orex": 8814,
      "orias": 8815,
      "orelha": 8816,
      "orgasmo": 8817,
      "reú": 8818,
      "reme": 8819,
      "reiro": 8820,
      "reforma": 8821,
      "repai": 8822,
      "reconhe": 8823,
      "renas": 8824,
      "remun": 8825,
      "retêm": 8826,
      "reproduzir": 8827,
      "referências": 8828,
      "requerem": 8829,
      "mex": 8830,
      "meas": 8831,
      "mero": 8832,
      "mejor": 8833,
      "mato": 8834,
      "macon": 8835,
      "mala": 8836,
      "mamos": 8837,
      "maxi": 8838,
      "moch": 8839,
      "mobilidade": 8840,
      "moving": 8841,
      "dora": 8842,
      "doido": 8843,
      "down": 8844,
      "tain": 8845,
      "tono": 8846,
      "togê": 8847,
      "inia": 8848,
      "inse": 8849,
      "incomo": 8850,
      "inutil": 8851,
      "incê": 8852,
      "incen": 8853,
      "incó": 8854,
      "incerto": 8855,
      "indie": 8856,
      "inimi": 8857,
      "invisivel": 8858,
      "celas": 8859,
      "celino": 8860,
      "cache": 8861,
      "cause": 8862,
      "caína": 8863,
      "causing": 8864,
      "causou": 8865,
      "isa": 8866,
      "iscos": 8867,
      "erão": 8868,
      "errou": 8869,
      "erudita": 8870,
      "allow": 8871,
      "rode": 8872,
      "room": 8873,
      "rodovi": 8874,
      "ence": 8875,
      "enjo": 8876,
      "encan": 8877,
      "enou": 8878,
      "entura": 8879,
      "encial": 8880,
      "enfraque": 8881,
      "encue": 8882,
      "tio": 8883,
      "tice": 8884,
      "tiba": 8885,
      "tipica": 8886,
      "anão": 8887,
      "anual": 8888,
      "ants": 8889,
      "umi": 8890,
      "somb": 8891,
      "soil": 8892,
      "solini": 8893,
      "ril": 8894,
      "rivel": 8895,
      "riza": 8896,
      "rilha": 8897,
      "riculo": 8898,
      "riana": 8899,
      "rituais": 8900,
      "rivers": 8901,
      "ritiba": 8902,
      "esgo": 8903,
      "esforço": 8904,
      "espí": 8905,
      "vao": 8906,
      "vado": 8907,
      "vacu": 8908,
      "iam": 8909,
      "els": 8910,
      "elismo": 8911,
      "elang": 8912,
      "elhos": 8913,
      "Coma": 8914,
      "Comer": 8915,
      "Colesterol": 8916,
      "hol": 8917,
      "hole": 8918,
      "hojas": 8919,
      "stri": 8920,
      "stren": 8921,
      "stâncias": 8922,
      "sio": 8923,
      "sibilidade": 8924,
      "sag": 8925,
      "satel": 8926,
      "sazonal": 8927,
      "boi": 8928,
      "bone": 8929,
      "citar": 8930,
      "ciran": 8931,
      "ciências": 8932,
      "cific": 8933,
      "cidente": 8934,
      "poca": 8935,
      "pone": 8936,
      "polig": 8937,
      "poup": 8938,
      "poesia": 8939,
      "noau": 8940,
      "notifica": 8941,
      "noturno": 8942,
      "goes": 8943,
      "gono": 8944,
      "gotas": 8945,
      "prev": 8946,
      "precoce": 8947,
      "preocupado": 8948,
      "prejudi": 8949,
      "predominante": 8950,
      "lona": 8951,
      "locomo": 8952,
      "unds": 8953,
      "unami": 8954,
      "unts": 8955,
      "undação": 8956,
      "sera": 8957,
      "comparar": 8958,
      "contre": 8959,
      "confli": 8960,
      "menda": 8961,
      "mentir": 8962,
      "menstrua": 8963,
      "Tom": 8964,
      "expel": 8965,
      "expon": 8966,
      "exame": 8967,
      "exército": 8968,
      "exclu": 8969,
      "nadero": 8970,
      "dição": 8971,
      "dimin": 8972,
      "cargo": 8973,
      "carnes": 8974,
      "caotico": 8975,
      "imar": 8976,
      "imia": 8977,
      "implan": 8978,
      "imuno": 8979,
      "impossível": 8980,
      "império": 8981,
      "prob": 8982,
      "proca": 8983,
      "propor": 8984,
      "procidade": 8985,
      "proposi": 8986,
      "pronta": 8987,
      "ladas": 8988,
      "later": 8989,
      "lamb": 8990,
      "haci": 8991,
      "happen": 8992,
      "verdes": 8993,
      "versões": 8994,
      "basal": 8995,
      "Ques": 8996,
      "fabrica": 8997,
      "vetores": 8998,
      "resfri": 8999,
      "melhoria": 9000,
      "cuo": 9001,
      "cuta": 9002,
      "cuatro": 9003,
      "cutivos": 9004,
      "quico": 9005,
      "quite": 9006,
      "oscura": 9007,
      "lit": 9008,
      "lider": 9009,
      "lift": 9010,
      "ligou": 9011,
      "litoral": 9012,
      "leves": 9013,
      "leaves": 9014,
      "fungo": 9015,
      "anteriores": 9016,
      "sertividade": 9017,
      "gram": 9018,
      "gracias": 9019,
      "gradual": 9020,
      "avam": 9021,
      "izam": 9022,
      "izando": 9023,
      "send": 9024,
      "sense": 9025,
      "seníase": 9026,
      "parado": 9027,
      "parad": 9028,
      "volto": 9029,
      "voltou": 9030,
      "volcá": 9031,
      "tortura": 9032,
      "lart": 9033,
      "vimentos": 9034,
      "virais": 9035,
      "virou": 9036,
      "viético": 9037,
      "vibrar": 9038,
      "activa": 9039,
      "acros": 9040,
      "achei": 9041,
      "accumula": 9042,
      "ons": 9043,
      "since": 9044,
      "sinas": 9045,
      "ythm": 9046,
      "fir": 9047,
      "filas": 9048,
      "fixo": 9049,
      "fieira": 9050,
      "eufor": 9051,
      "peito": 9052,
      "fechou": 9053,
      "marco": 9054,
      "foro": 9055,
      "formula": 9056,
      "harmful": 9057,
      "fona": 9058,
      "found": 9059,
      "intelli": 9060,
      "hear": 9061,
      "Nabuco": 9062,
      "Rei": 9063,
      "Reino": 9064,
      "Referência": 9065,
      "tosfera": 9066,
      "inge": 9067,
      "mass": 9068,
      "massiva": 9069,
      "detalhes": 9070,
      "usan": 9071,
      "uses": 9072,
      "patho": 9073,
      "minador": 9074,
      "dark": 9075,
      "daram": 9076,
      "trauma": 9077,
      "tratado": 9078,
      "travando": 9079,
      "pasta": 9080,
      "canismo": 9081,
      "micro": 9082,
      "micró": 9083,
      "monu": 9084,
      "mones": 9085,
      "semble": 9086,
      "desenvolveu": 9087,
      "desenvolvidos": 9088,
      "iniciou": 9089,
      "ticamente": 9090,
      "gae": 9091,
      "gamer": 9092,
      "gafieira": 9093,
      "cionamento": 9094,
      "Goi": 9095,
      "contamin": 9096,
      "contagi": 9097,
      "many": 9098,
      "manto": 9099,
      "horrivel": 9100,
      "desmotivado": 9101,
      "descansado": 9102,
      "descul": 9103,
      "desast": 9104,
      "desconto": 9105,
      "desligar": 9106,
      "desnutrição": 9107,
      "desculpa": 9108,
      "falls": 9109,
      "sabores": 9110,
      "viam": 9111,
      "gigante": 9112,
      "cinco": 9113,
      "neas": 9114,
      "necro": 9115,
      "needs": 9116,
      "bian": 9117,
      "bién": 9118,
      "medium": 9119,
      "mediter": 9120,
      "chlor": 9121,
      "changes": 9122,
      "chelang": 9123,
      "terceiro": 9124,
      "terrenos": 9125,
      "polvo": 9126,
      "suple": 9127,
      "sugar": 9128,
      "tropical": 9129,
      "práticas": 9130,
      "formato": 9131,
      "nubes": 9132,
      "evolution": 9133,
      "escolhe": 9134,
      "valioso": 9135,
      "curriculo": 9136,
      "planície": 9137,
      "brou": 9138,
      "mul": 9139,
      "mude": 9140,
      "much": 9141,
      "mulheres": 9142,
      "muçul": 9143,
      "Esto": 9144,
      "Esforço": 9145,
      "gargan": 9146,
      "aegypti": 9147,
      "anotecnologia": 9148,
      "important": 9149,
      "irmão": 9150,
      "trilhões": 9151,
      "triângulos": 9152,
      "trimônio": 9153,
      "fashi": 9154,
      "aviso": 9155,
      "aventura": 9156,
      "world": 9157,
      "works": 9158,
      "planets": 9159,
      "planejando": 9160,
      "ganos": 9161,
      "precisão": 9162,
      "titui": 9163,
      "jaros": 9164,
      "manos": 9165,
      "lubrica": 9166,
      "turna": 9167,
      "turbinas": 9168,
      "Some": 9169,
      "testante": 9170,
      "calenta": 9171,
      "calçado": 9172,
      "comeca": 9173,
      "cometas": 9174,
      "Engl": 9175,
      "Encontre": 9176,
      "plaquetas": 9177,
      "numerador": 9178,
      "organisms": 9179,
      "paredes": 9180,
      "trefação": 9181,
      "gence": 9182,
      "gentil": 9183,
      "analítica": 9184,
      "toriais": 9185,
      "vasos": 9186,
      "puri": 9187,
      "puzz": 9188,
      "defende": 9189,
      "grego": 9190,
      "grelhado": 9191,
      "julho": 9192,
      "gnize": 9193,
      "solteiro": 9194,
      "çoso": 9195,
      "Jobim": 9196,
      "John": 9197,
      "tru": 9198,
      "disue": 9199,
      "comunista": 9200,
      "Tecno": 9201,
      "Terapia": 9202,
      "invernadero": 9203,
      "metabólica": 9204,
      "querida": 9205,
      "chek": 9206,
      "check": 9207,
      "checando": 9208,
      "mbers": 9209,
      "185": 9210,
      "1817": 9211,
      "1848": 9212,
      "abstra": 9213,
      "abrindo": 9214,
      "aula": 9215,
      "autum": 9216,
      "classificação": 9217,
      "Podem": 9218,
      "rua": 9219,
      "rurais": 9220,
      "Sudeste": 9221,
      "stay": 9222,
      "state": 9223,
      "programado": 9224,
      "programando": 9225,
      "denci": 9226,
      "quisição": 9227,
      "Conflito": 9228,
      "Contínu": 9229,
      "Confede": 9230,
      "Configura": 9231,
      "Constituição": 9232,
      "Construi": 9233,
      "calculadora": 9234,
      "diversifica": 9235,
      "vender": 9236,
      "Protestante": 9237,
      "también": 9238,
      "Andr": 9239,
      "artistas": 9240,
      "biomassa": 9241,
      "biológicos": 9242,
      "enormes": 9243,
      "transtor": 9244,
      "144": 9245,
      "piração": 9246,
      "instituição": 9247,
      "bravo": 9248,
      "sonhei": 9249,
      "guerras": 9250,
      "nesse": 9251,
      "assistência": 9252,
      "produtores": 9253,
      "aprendi": 9254,
      "uld": 9255,
      "ilão": 9256,
      "ildade": 9257,
      "geométrica": 9258,
      "tentativa": 9259,
      "possuem": 9260,
      "massagem": 9261,
      "atenção": 9262,
      "seguinte": 9263,
      "inovar": 9264,
      "excelentes": 9265,
      "cultores": 9266,
      "restau": 9267,
      "chover": 9268,
      "ficante": 9269,
      "Inconfi": 9270,
      "Inquisição": 9271,
      "mortes": 9272,
      "morning": 9273,
      "táveis": 9274,
      "being": 9275,
      "colabora": 9276,
      "virtude": 9277,
      "colaterais": 9278,
      "hatma": 9279,
      "creen": 9280,
      "creando": 9281,
      "superi": 9282,
      "variados": 9283,
      "ferir": 9284,
      "ferias": 9285,
      "fetching": 9286,
      "hier": 9287,
      "hipoten": 9288,
      "hierro": 9289,
      "salt": 9290,
      "saldo": 9291,
      "salvam": 9292,
      "salhes": 9293,
      "salud": 9294,
      "mercados": 9295,
      "Kubits": 9296,
      "computing": 9297,
      "compulsão": 9298,
[...]
